{"version": "1.0", "truncation": null, "padding": null, "added_tokens": [{"id": 0, "content": "<|endoftext|>", "single_word": false, "lstrip": false, "rstrip": false, "normalized": false, "special": true}], "normalizer": null, "pre_tokenizer": {"type": "ByteLevel", "add_prefix_space": false, "trim_offsets": true, "use_regex": true}, "post_processor": null, "decoder": null, "model": {"type": "BPE", "dropout": null, "unk_token": null, "continuing_subword_prefix": null, "end_of_word_suffix": null, "fuse_unk": false, "byte_fallback": false, "ignore_merges": false, "vocab": {"<|endoftext|>": 0, "!": 1, "\"": 2, "#": 3, "$": 4, "%": 5, "&": 6, "'": 7, "(": 8, ")": 9, "*": 10, "+": 11, ",": 12, "-": 13, ".": 14, "/": 15, "0": 16, "1": 17, "2": 18, "3": 19, "4": 20, "5": 21, "6": 22, "7": 23, "8": 24, "9": 25, ":": 26, ";": 27, "=": 28, ">": 29, "?": 30, "@": 31, "A": 32, "B": 33, "C": 34, "D": 35, "E": 36, "F": 37, "G": 38, "H": 39, "I": 40, "J": 41, "K": 42, "L": 43, "M": 44, "N": 45, "O": 46, "P": 47, "Q": 48, "R": 49, "S": 50, "T": 51, "U": 52, "V": 53, "W": 54, "X": 55, "Y": 56, "Z": 57, "[": 58, "]": 59, "^": 60, "_": 61, "`": 62, "a": 63, "b": 64, "c": 65, "d": 66, "e": 67, "f": 68, "g": 69, "h": 70, "i": 71, "j": 72, "k": 73, "l": 74, "m": 75, "n": 76, "o": 77, "p": 78, "q": 79, "r": 80, "s": 81, "t": 82, "u": 83, "v": 84, "w": 85, "x": 86, "y": 87, "z": 88, "{": 89, "|": 90, "}": 91, "~": 92, "¡": 93, "¢": 94, "£": 95, "¤": 96, "¦": 97, "§": 98, "¨": 99, "©": 100, "ª": 101, "«": 102, "®": 103, "¯": 104, "°": 105, "±": 106, "²": 107, "³": 108, "´": 109, "µ": 110, "¶": 111, "·": 112, "¸": 113, "¹": 114, "º": 115, "»": 116, "¼": 117, "½": 118, "¾": 119, "¿": 120, "Â": 121, "Ã": 122, "Ä": 123, "Å": 124, "Î": 125, "Ï": 126, "á": 127, "â": 128, "ĉ": 129, "Ċ": 130, "č": 131, "Ġ": 132, "Ģ": 133, "ģ": 134, "Ĥ": 135, "ĥ": 136, "Ħ": 137, "ħ": 138, "Ĩ": 139, "ĩ": 140, "Ī": 141, "ī": 142, "Ĭ": 143, "ĭ": 144, "į": 145, "İ": 146, "ı": 147, "Ĵ": 148, "ĵ": 149, "Ķ": 150, "ķ": 151, "ĸ": 152, "ĺ": 153, "Ļ": 154, "ľ": 155, "Ŀ": 156, "ŀ": 157, "ł": 158, "Ġt": 159, "he": 160, "Ġa": 161, "čĊ": 162, "in": 163, "Ġthe": 164, "Ġo": 165, "re": 166, "ĠĠ": 167, "Ġs": 168, "er": 169, "Ġw": 170, "nd": 171, "on": 172, "at": 173, "it": 174, "ou": 175, "is": 176, "en": 177, "Ġb": 178, "Ġof": 179, "es": 180, "Ġc": 181, "Ġm": 182, "Ġp": 183, "or": 184, "Ġf": 185, "an": 186, "ed": 187, "Ġand": 188, "Ġh": 189, "Ġto": 190, "Ġin": 191, "Ġd": 192, "ar": 193, "Ġth": 194, "ll": 195, "ĠĠĠĠ": 196, "Ġl": 197, "Ġn": 198, "ing": 199, "ic": 200, "ion": 201, "as": 202, "om": 203, "Ġbe": 204, "le": 205, "Ġe": 206, "ve": 207, "ent": 208, "se": 209, "ot": 210, "st": 211, "al": 212, "ut": 213, "Ġg": 214, "ct": 215, "ĠI": 216, "ce": 217, "Ġis": 218, "Ġy": 219, "Ġwh": 220, "ver": 221, "ow": 222, "im": 223, "ly": 224, "Ġit": 225, "Ġthat": 226, "Ġre": 227, "Ġyou": 228, "Ġu": 229, "ir": 230, "Ġha": 231, "Ġhe": 232, "et": 233, "ld": 234, "Ġfor": 235, "ur": 236, "ay": 237, "Ġas": 238, "id": 239, "ĠĠĠĠĠĠĠĠ": 240, "ro": 241, "ĠT": 242, "Ġ_": 243, "ith": 244, "Ġon": 245, "the": 246, "gh": 247, "ill": 248, "ich": 249, "qu": 250, "âĢ": 251, "Ġnot": 252, "ch": 253, "if": 254, "Ġan": 255, "am": 256, "Ġwe": 257, "Ġwith": 258, "Ġor": 259, "Ġde": 260, "ation": 261, "ad": 262, "Ġwhich": 263, "Ġcon": 264, "ter": 265, "pe": 266, "Ġby": 267, "Ġsu": 268, "Ġare": 269, "all": 270, "ri": 271, "ess": 272, "Ġhave": 273, "Ġst": 274, "Ġse": 275, "od": 276, "ain": 277, "ould": 278, "and": 279, "il": 280, "res": 281, "ĠS": 282, "th": 283, "ul": 284, "Ġex": 285, "ore": 286, "ĠA": 287, "ght": 288, "est": 289, "ĠThe": 290, "Ġsh": 291, "ate": 292, "Ġcom": 293, "ke": 294, "ive": 295, "Ġme": 296, "her": 297, "ect": 298, "Ġat": 299, "Ġso": 300, "ant": 301, "Ġhis": 302, "us": 303, "ab": 304, "Ġwill": 305, "Ġbut": 306, "ge": 307, "ers": 308, "ra": 309, "rom": 310, "Ġv": 311, "Ġwas": 312, "Ġall": 313, "Ġne": 314, "ies": 315, "Ġthis": 316, "ĠĠĠ": 317, "Ġthey": 318, "our": 319, "iv": 320, "ment": 321, "ous": 322, "os": 323, "Ġk": 324, "ity": 325, "to": 326, "ust": 327, "Ã©": 328, "ĠC": 329, "ol": 330, "te": 331, "Ġpro": 332, "very": 333, "Ġgo": 334, "Ġman": 335, "pp": 336, "art": 337, "Ġtheir": 338, "nt": 339, "Ġfrom": 340, "ig": 341, "ist": 342, "ome": 343, "ure": 344, "Ġqu": 345, "ord": 346, "la": 347, "ther": 348, "Ġle": 349, "Ġwhe": 350, "Ġyour": 351, "ru": 352, "ame": 353, "Ġmy": 354, "Ġthem": 355, "ĠM": 356, "ple": 357, "Ġdo": 358, "ose": 359, "um": 360, "ie": 361, "red": 362, "ĠW": 363, "Ġch": 364, "Ġhim": 365, "ĠH": 366, "âĢĻ": 367, "ard": 368, "ĠB": 369, "ence": 370, "Ġla": 371, "ions": 372, "Ġup": 373, "un": 374, "Ġone": 375, "Ġad": 376, "ind": 377, "reat": 378, "Ġno": 379, "Ġun": 380, "ci": 381, "ost": 382, "em": 383, "Ġ1": 384, "per": 385, "Ġsa": 386, "Ġmay": 387, "ĠP": 388, "sel": 389, "Ġj": 390, "Ġal": 391, "ĠE": 392, "Ġcan": 393, "ject": 394, "_,": 395, "ast": 396, "ĠĠĠĠĠĠĠĠĠĠĠĠĠĠĠĠ": 397, "ong": 398, "ort": 399, "The": 400, "ak": 401, "Ġother": 402, "ight": 403, "Ġwho": 404, "--": 405, "ans": 406, "Ġwould": 407, "Ġthere": 408, "Ġus": 409, "able": 410, "ance": 411, "Ġr": 412, "ff": 413, "ĠF": 414, "Ġmore": 415, "cc": 416, "out": 417, "ĠâĢ": 418, "pt": 419, "Ġpr": 420, "ake": 421, "ire": 422, "Ġhad": 423, "ck": 424, "ary": 425, "Ġen": 426, "'s": 427, "Ġpart": 428, "ound": 429, "Ġif": 430, "are": 431, "Ġhas": 432, "Ġim": 433, "ond": 434, "Ġab": 435, "now": 436, "we": 437, "of": 438, "Ġfa": 439, "Ġthan": 440, "Ġbeen": 441, "not": 442, "itt": 443, "ces": 444, "Ġany": 445, "ag": 446, "ud": 447, "ert": 448, "ish": 449, "Ġthou": 450, "one": 451, "ĠL": 452, "ĠG": 453, "Ġam": 454, "ime": 455, "bject": 456, "pl": 457, "Ġform": 458, "Ġpe": 459, "Ġwere": 460, "ine": 461, "ally": 462, "Ġour": 463, "Ġwhen": 464, "au": 465, "ry": 466, "ĠN": 467, "Ġspe": 468, "Ġgreat": 469, "be": 470, "ok": 471, "Ġ(": 472, "ass": 473, "ress": 474, "Ġsome": 475, "Ġupon": 476, "ree": 477, "self": 478, "ib": 479, "ice": 480, "Ġfe": 481, "fore": 482, "Ġvery": 483, "bl": 484, "Ġdis": 485, "Ġher": 486, "ĠR": 487, "ven": 488, "ĠO": 489, "Ġar": 490, "fe": 491, "Ġcomm": 492, "Ġwhat": 493, "Ġits": 494, "ction": 495, "ĠSt": 496, "Ġshould": 497, "Ġet": 498, "Ġwor": 499, "ĠD": 500, "ount": 501, "Ġpre": 502, "ĠâĢĺ": 503, "Ġdes": 504, "ne": 505, "con": 506, "hat": 507, "Ġlo": 508, "Ġper": 509, "ide": 510, "Ġpl": 511, "ations": 512, "ap": 513, "Ġthese": 514, "age": 515, "_.": 516, "uch": 517, "Ġshe": 518, "Ġtime": 519, "Ġmust": 520, "Ġag": 521, "Ġonly": 522, "Ġinto": 523, "Ġknow": 524, "wn": 525, "ates": 526, "oun": 527, "ach": 528, "Ġgood": 529, "nder": 530, "ase": 531, "me": 532, "ue": 533, "other": 534, "ise": 535, "Ġlaw": 536, "ng": 537, "for": 538, "Ġind": 539, "Ġcont": 540, "Ġshall": 541, "Ġpo": 542, "ike": 543, "wo": 544, "Ġtr": 545, "own": 546, "ings": 547, "ang": 548, "Ġsame": 549, "ower": 550, "Ġlet": 551, "Ġgr": 552, "ens": 553, "Ġout": 554, "ite": 555, "ade": 556, "ition": 557, "Ġnat": 558, "ough": 559, "irst": 560, "ign": 561, "Ġmost": 562, "ays": 563, "pos": 564, "Ġsaid": 565, "his": 566, "ĠIt": 567, "HE": 568, "ener": 569, "Ġthose": 570, "wh": 571, "ac": 572, "Ġsuch": 573, "Ġsee": 574, "'d": 575, "Ġword": 576, "resent": 577, "Ġevery": 578, "ated": 579, "vern": 580, "Ġ2": 581, "ber": 582, "so": 583, "ars": 584, "ople": 585, "ep": 586, "ons": 587, "int": 588, "Ġcons": 589, "el": 590, "ves": 591, "Ġnow": 592, "bs": 593, "Ġcl": 594, "Ġtwo": 595, "oth": 596, "ced": 597, "Ġbet": 598, "hed": 599, "Ġwell": 600, "ave": 601, "ĠY": 602, "act": 603, "ult": 604, "cess": 605, "oll": 606, "ren": 607, "ittle": 608, "ĠIn": 609, "ither": 610, "EN": 611, "Ġdif": 612, "com": 613, "Ġmuch": 614, "ER": 615, "Ġthen": 616, "Ġlike": 617, "ood": 618, "ious": 619, "ath": 620, "cl": 621, "Ġsp": 622, "Ġbr": 623, "Ġcomp": 624, "iz": 625, "end": 626, "ink": 627, "Ġown": 628, "ife": 629, "Ġres": 630, "Ġhow": 631, "And": 632, "ied": 633, "stit": 634, "ĠBut": 635, "op": 636, "erv": 637, "Ġimp": 638, "Ġuse": 639, "Ġpers": 640, "IN": 641, "Ġsent": 642, "man": 643, "ution": 644, "mer": 645, "Ġpeople": 646, "Ġfirst": 647, "ĠJ": 648, "ful": 649, "âĢĿ": 650, "Ġapp": 651, "ex": 652, "Ġlittle": 653, "ative": 654, "Ġking": 655, "uth": 656, "Ġpower": 657, "ical": 658, "Ġoff": 659, "Ġwhere": 660, "ON": 661, "ual": 662, "Ġrem": 663, "Ġ\"": 664, "Ãł": 665, "Ġacc": 666, "ors": 667, "right": 668, "ici": 669, "du": 670, "that": 671, "urn": 672, "Ġmen": 673, "Ġunder": 674, "oss": 675, "vernment": 676, "ell": 677, "Ġmake": 678, "Ġgener": 679, "ĠU": 680, "hen": 681, "ertain": 682, "oy": 683, "AR": 684, "ular": 685, "Ġbeing": 686, "Ġpla": 687, "ives": 688, "ather": 689, "fter": 690, "Ġagain": 691, "cies": 692, "ĠHe": 693, "ĠV": 694, "ness": 695, "ubl": 696, "ward": 697, ".]": 698, "sh": 699, "rit": 700, "ause": 701, "ict": 702, "Ġmade": 703, "pect": 704, "ited": 705, "Ġrep": 706, "Ġpar": 707, "Ġwithout": 708, "ory": 709, "Ġmany": 710, "Ġbec": 711, "ile": 712, "Ġlong": 713, "ute": 714, "Ġsay": 715, "av": 716, "hing": 717, "Ġcould": 718, "Ġexp": 719, "ull": 720, "oot": 721, "Ġcall": 722, "Ġprin": 723, "Ġver": 724, "ants": 725, "Ġsubject": 726, "ever": 727, "les": 728, "Ġest": 729, "Ġnever": 730, "Ġdist": 731, "ten": 732, "Ġused": 733, "ily": 734, "Ġrel": 735, "Ġque": 736, ".+": 737, "old": 738, "Ġmod": 739, "su": 740, "Ġinf": 741, "ngl": 742, "ty": 743, "Ġeach": 744, "Ġ+": 745, "use": 746, "Ġcour": 747, "ĠStates": 748, "rent": 749, "led": 750, "ild": 751, "Ġobject": 752, "ark": 753, "atter": 754, "Ġcount": 755, "hes": 756, "ec": 757, "ip": 758, "Ġtoo": 759, "ĠÃł": 760, "ural": 761, "ublic": 762, "Ġ3": 763, "Ġye": 764, "Ġro": 765, "Ġletter": 766, "Ġchar": 767, "Ġact": 768, "Ġover": 769, "its": 770, "ope": 771, "ible": 772, "Ġright": 773, "Ġhere": 774, "âĢĶ": 775, "Ġbefore": 776, "Ġwords": 777, "ĠUn": 778, "Ġple": 779, "Ġfl": 780, "Ġtake": 781, "Ġhand": 782, "Ġinst": 783, "meric": 784, "ĠWe": 785, "Ġreg": 786, "vers": 787, "Ġlife": 788, "ĠAnd": 789, "Ġem": 790, "Ġord": 791, "which": 792, "riv": 793, "Ġdiffe": 794, "Ġnew": 795, "Ġbel": 796, "form": 797, "Ġsec": 798, "Ġcannot": 799, "Ġra": 800, "tend": 801, "Ġcommon": 802, "Ġap": 803, "imes": 804, "ial": 805, "Ġnature": 806, "ES": 807, "ts": 808, "Ġcome": 809, "og": 810, "ense": 811, "cy": 812, "less": 813, "Ã¨": 814, "ick": 815, "pend": 816, "ments": 817, "Ġjust": 818, "ook": 819, "ffect": 820, "Ġnum": 821, "Ġthink": 822, "..": 823, "Ġyet": 824, "ways": 825, "omet": 826, "Ġgovernment": 827, "Ġmight": 828, "Ġent": 829, "Ġma": 830, "ĠThis": 831, "ween": 832, "vent": 833, "Ġafter": 834, "ble": 835, "here": 836, "iss": 837, "Ġfound": 838, "Ġgive": 839, "Ġend": 840, "ph": 841, "ait": 842, "Ġspecies": 843, "Ġthr": 844, "Ġpresent": 845, "Ġthought": 846, "ouse": 847, "Ġeven": 848, "ĠĠĠĠĠĠĠĠĠĠĠĠ": 849, "Ġless": 850, "Ġsupp": 851, "ove": 852, "de": 853, "Ġboth": 854, "ĠâĢľ": 855, "ason": 856, "rest": 857, "Ġposs": 858, "ari": 859, "Ġext": 860, "ority": 861, "ished": 862, "Ġsub": 863, "Ġold": 864, "ĠEngl": 865, "Ġconf": 866, "riend": 867, "Ġpass": 868, "pro": 869, "Ġworld": 870, "Ġalso": 871, "TI": 872, "Ġfind": 873, "Ġtru": 874, "Ġcla": 875, "with": 876, "Ġcertain": 877, "In": 878, "ner": 879, "ning": 880, "ody": 881, "ater": 882, "Ġatt": 883, "ety": 884, "Ġperson": 885, "ently": 886, "Ġru": 887, "note": 888, "Ġdid": 889, "ix": 890, "stitution": 891, "get": 892, "Ġac": 893, "ootnote": 894, "ĠIf": 895, "Ġread": 896, "Footnote": 897, "ollow": 898, "selves": 899, "Ġday": 900, "any": 901, "Ġlast": 902, "Ġabout": 903, "Ġthough": 904, "Ġlook": 905, "ĠAmeric": 906, "Ġseem": 907, "ran": 908, "Ġcond": 909, "Ġcor": 910, "rib": 911, "Ġles": 912, "Ġalways": 913, "igh": 914, "iness": 915, "Ġleg": 916, "US": 917, "Ġstill": 918, "ont": 919, "li": 920, "ases": 921, "bt": 922, "Ġway": 923, "aint": 924, "Ġnecess": 925, "ents": 926, "cept": 927, "ities": 928, "Ġinte": 929, "Ġlaws": 930, "pr": 931, "Ġplace": 932, "._": 933, "Ġbetween": 934, "Ġwr": 935, "Ġanother": 936, "ility": 937, "Ġfar": 938, "ince": 939, "ret": 940, "read": 941, "Ġexpress": 942, "Ġbl": 943, "Ġcase": 944, "OR": 945, "Ġnor": 946, "Ġass": 947, "ĠTh": 948, "als": 949, "ider": 950, "ract": 951, "AN": 952, "Ġsc": 953, "lect": 954, "oc": 955, "ET": 956, "Ġadv": 957, "Ġwork": 958, "Wh": 959, "ures": 960, "To": 961, "Ġtherefore": 962, "Ġaw": 963, "Ġthy": 964, "Ġproper": 965, "fect": 966, "Ġfriend": 967, "ving": 968, "ĠTHE": 969, "II": 970, "Ġop": 971, "most": 972, "ace": 973, "Ġauth": 974, "ack": 975, "Ġsomet": 976, "ĠFor": 977, "Ġappe": 978, "ia": 979, ".âĢĻ": 980, "Ġthings": 981, "Ġspeak": 982, "Ġco": 983, "Ġbeg": 984, "Ġoften": 985, "ences": 986, "Ġcar": 987, "Ġpur": 988, "Ġeither": 989, "ived": 990, "Ġfollow": 991, "Ġset": 992, "Ġce": 993, "Ġmeans": 994, "Th": 995, "ĠMr": 996, "irect": 997, "ivid": 998, "Ġ4": 999, "min": 1000, "Ġgeneral": 1001, "But": 1002, "ux": 1003, "que": 1004, "Ġbest": 1005, "ird": 1006, "Ġke": 1007, "Ġnoun": 1008, "Ġadd": 1009, ".\"": 1010, "ved": 1011, "Ġexam": 1012, "Ġkind": 1013, "par": 1014, "ĠState": 1015, "THE": 1016, "Ġmean": 1017, "ĠK": 1018, "Ġinter": 1019, "air": 1020, "Ġcalled": 1021, "Ãª": 1022, "Ġprinci": 1023, "Ġpol": 1024, "Ġjud": 1025, "Ġhimself": 1026, "Ġcr": 1027, "Ġson": 1028, "Ġpoint": 1029, "Ġbetter": 1030, "Ġcame": 1031, "ING": 1032, "Ġdown": 1033, "Ġph": 1034, "eth": 1035, "Ġ17": 1036, "Ġdisc": 1037, "ought": 1038, "ĠThey": 1039, "aut": 1040, "Ġwhole": 1041, "uses": 1042, "ances": 1043, "Ġsim": 1044, "ands": 1045, "ĠĠĠĠĠĠĠĠĠĠĠĠĠĠĠĠĠĠĠĠĠĠĠĠĠĠĠĠĠĠĠĠ": 1046, "ail": 1047, "Ġinde": 1048, "Ġsentence": 1049, "up": 1050, "Ġint": 1051, "ĠYou": 1052, "ĠĠĠĠĠĠĠ": 1053, "Ġdifferent": 1054, "Ġpublic": 1055, "Ġtak": 1056, "isl": 1057, "veral": 1058, "Ġput": 1059, "Ġstr": 1060, "Ġrest": 1061, "Ġcharact": 1062, "Ġil": 1063, "by": 1064, "aster": 1065, "Ġstate": 1066, "Ġdoes": 1067, "Ġmodif": 1068, "inct": 1069, "Ġnumber": 1070, "Ġhapp": 1071, "Ġverb": 1072, "ĠÃ©": 1073, "Ġocc": 1074, "eder": 1075, "Ġreason": 1076, "Ġsoci": 1077, "Ġcountry": 1078, "ew": 1079, "Ġnothing": 1080, "ains": 1081, "Ġpleas": 1082, "Ġever": 1083, "und": 1084, "Ġdu": 1085, "Ġfact": 1086, "Ġnatural": 1087, "icular": 1088, "Ġart": 1089, "Ġsur": 1090, "Ġqui": 1091, "Ġthree": 1092, "ained": 1093, "Ġsing": 1094, "ient": 1095, "Ġagainst": 1096, "Ġtrue": 1097, "He": 1098, "Ġou": 1099, "Ġwar": 1100, "Ġret": 1101, "Ġbecause": 1102, "ier": 1103, "ually": 1104, "Ġlar": 1105, "ried": 1106, "peri": 1107, "Ġtell": 1108, "Ġear": 1109, "Ġinc": 1110, "Ġcare": 1111, "Ġsoon": 1112, "Ġlove": 1113, "TER": 1114, "Ġdou": 1115, "ention": 1116, "mb": 1117, "med": 1118, "rence": 1119, "That": 1120, "ĠCh": 1121, "ceed": 1122, "Ġdeg": 1123, "une": 1124, "ature": 1125, "ament": 1126, "Ġseveral": 1127, "Ġorder": 1128, "Ġmind": 1129, ",--": 1130, "Ġsm": 1131, "Ġsy": 1132, "ably": 1133, "Ġchild": 1134, "Ġgl": 1135, "Ġgiv": 1136, "Ġdec": 1137, "Ġthrough": 1138, "It": 1139, "ins": 1140, "Ġthee": 1141, "Ġforms": 1142, "Ġobs": 1143, "erve": 1144, "ĠAs": 1145, "Ġvari": 1146, "Ġbelie": 1147, "Ġequ": 1148, "sequ": 1149, "ined": 1150, "lu": 1151, "Ġfew": 1152, "ian": 1153, "gether": 1154, "Ġmak": 1155, "row": 1156, "Ġaff": 1157, "ages": 1158, "onoun": 1159, "Ġthing": 1160, "Ġbus": 1161, "IO": 1162, "Ġname": 1163, "Ġimport": 1164, "Ġsou": 1165, "Ġcontin": 1166, "ĠCon": 1167, "Ġinterest": 1168, "ND": 1169, "Ġdiff": 1170, "Ġyears": 1171, "Ġ[": 1172, "Ġheart": 1173, "part": 1174, "Ġhead": 1175, "Ġsuff": 1176, "Ġprodu": 1177, "ft": 1178, "ote": 1179, "Ġans": 1180, "Ġthemselves": 1181, "Ġref": 1182, "ĠThere": 1183, "Ġpres": 1184, "have": 1185, "day": 1186, "Ġmar": 1187, "Ġlord": 1188, "you": 1189, "Ġnation": 1190, "Ġaway": 1191, "will": 1192, "Ġadject": 1193, "ples": 1194, "Ġconsider": 1195, "icate": 1196, "tem": 1197, "ms": 1198, "ock": 1199, "reed": 1200, "Ġfore": 1201, "ividual": 1202, "alk": 1203, "Ġcomple": 1204, "Ġseen": 1205, "IC": 1206, "Ġwant": 1207, "ident": 1208, "Ġstru": 1209, "Ġshow": 1210, "Ġonce": 1211, "ices": 1212, "Ġdone": 1213, "but": 1214, "Ġexist": 1215, "ged": 1216, "Ġserv": 1217, "iew": 1218, "Ġget": 1219, "Ġprop": 1220, "Ġprov": 1221, "owers": 1222, "lection": 1223, "Ġhaving": 1224, "irc": 1225, "UC": 1226, "orn": 1227, "âĢľ": 1228, "What": 1229, "ised": 1230, "Ġey": 1231, "Ġgra": 1232, ".,": 1233, "Ġothers": 1234, "Ġparticular": 1235, "ully": 1236, "Ġhon": 1237, "Ġleast": 1238, "Ġbody": 1239, "ication": 1240, "ours": 1241, "Ġrec": 1242, "Ġrece": 1243, "Ġnecessary": 1244, "Ġhowever": 1245, "Ġte": 1246, "IS": 1247, "Ġmon": 1248, "Ġquest": 1249, "sol": 1250, "ccess": 1251, "angu": 1252, "Ġhum": 1253, "Ġav": 1254, "requ": 1255, "Ġsl": 1256, "Ġwent": 1257, "oint": 1258, "Ġfather": 1259, "app": 1260, "men": 1261, "For": 1262, "Ġmanner": 1263, "tre": 1264, "Ġter": 1265, "Ġ'": 1266, "Ġbook": 1267, "Ġhouse": 1268, ".--": 1269, "ais": 1270, "ale": 1271, "stand": 1272, "Ġlegisl": 1273, "ĠWhen": 1274, "icult": 1275, "Ġyoung": 1276, "ating": 1277, "ĠĠĠĠĠĠĠĠĠ": 1278, "Ġask": 1279, "ately": 1280, "Ġclass": 1281, "Ġrespect": 1282, "Ġhath": 1283, "ĠNew": 1284, "abl": 1285, "Ġacqu": 1286, "itions": 1287, "Ġitself": 1288, "Ġthus": 1289, "Ġpronoun": 1290, "ĠAND": 1291, "Ġadver": 1292, "ax": 1293, "Ġdans": 1294, "Ġlib": 1295, "Ġwhom": 1296, "Ġbusiness": 1297, "ss": 1298, "mon": 1299, "Ġ5": 1300, "Ġrequ": 1301, "Ġmor": 1302, "Ġopp": 1303, "Ġeas": 1304, "Ġgiven": 1305, "ges": 1306, "thing": 1307, "Ġins": 1308, "ĠUnited": 1309, "Ġca": 1310, "Ġinv": 1311, "ork": 1312, "vel": 1313, "Ġpossess": 1314, "Ġwom": 1315, "Ġformer": 1316, "go": 1317, "ledge": 1318, "ef": 1319, "erc": 1320, "If": 1321, "urope": 1322, "00": 1323, "pre": 1324, "Ġgu": 1325, "ĠEngland": 1326, "ude": 1327, "You": 1328, "ivil": 1329, "AL": 1330, "Ġauthority": 1331, "ps": 1332, "ange": 1333, "Ġmatter": 1334, "over": 1335, "cer": 1336, "dom": 1337, "arn": 1338, "LE": 1339, "Ġpolit": 1340, "Ġcharacter": 1341, "Ġpriv": 1342, "ired": 1343, "Ġhear": 1344, "Ġlarge": 1345, "Ġparts": 1346, "ened": 1347, "Ġeffect": 1348, "Ġtogether": 1349, "Ġje": 1350, "Ġconst": 1351, "ĠSo": 1352, "wards": 1353, "Ġturn": 1354, "Ġbelieve": 1355, "nect": 1356, "itiz": 1357, "Ġpas": 1358, "Ġindividual": 1359, "position": 1360, "As": 1361, "We": 1362, "ison": 1363, "br": 1364, "Ġche": 1365, "anger": 1366, "xt": 1367, "Ġstand": 1368, "Ġamong": 1369, "Ġsense": 1370, "Ġsince": 1371, "Ġdirect": 1372, "ui": 1373, "ank": 1374, "ĠUnion": 1375, "rel": 1376, "ee": 1377, "ury": 1378, "hab": 1379, "they": 1380, "Ġkeep": 1381, "rat": 1382, "Ġpersons": 1383, "entle": 1384, "Ġill": 1385, "Ġdef": 1386, "their": 1387, "Ġetc": 1388, "Ġsecond": 1389, "Ġstud": 1390, "This": 1391, "Ġwithin": 1392, "EL": 1393, "ien": 1394, "Ġsometimes": 1395, "Ġcle": 1396, "Ġpour": 1397, "Ġdegree": 1398, "Ġclause": 1399, "ivers": 1400, "Ġdet": 1401, "urs": 1402, "ĠAmerica": 1403, "Ġplus": 1404, "Ġmo": 1405, "Ġstre": 1406, "'ll": 1407, "Ġbecome": 1408, "ĠEnglish": 1409, "itive": 1410, "Ġel": 1411, "Ġsmall": 1412, "cul": 1413, "Ġtem": 1414, "Ġbeaut": 1415, "Ġtruth": 1416, "Ġcirc": 1417, "ĠGod": 1418, "ĠOF": 1419, "ross": 1420, "ality": 1421, "ĠÂ": 1422, "Ġsuccess": 1423, ").": 1424, "Ġtra": 1425, "Ġsir": 1426, "them": 1427, "ordin": 1428, "Ġtill": 1429, "arly": 1430, "itted": 1431, "ĠdÃ©": 1432, "),": 1433, "ĠEurope": 1434, "Ġought": 1435, "Ġwrit": 1436, "Ġlight": 1437, "iment": 1438, "rog": 1439, "ys": 1440, "istr": 1441, "Ġperfect": 1442, "rely": 1443, "Ġwater": 1444, "wer": 1445, "omin": 1446, "Ġadm": 1447, "posed": 1448, "Ġhigh": 1449, "Ġalmost": 1450, "medi": 1451, "gg": 1452, "Ġaccount": 1453, "stitut": 1454, "aps": 1455, "Ġfam": 1456, "arch": 1457, "irt": 1458, "liament": 1459, "Ġair": 1460, "Ġmis": 1461, "Ġlangu": 1462, "ctions": 1463, "Ġdem": 1464, "Ġexample": 1465, "ederal": 1466, "asion": 1467, "OM": 1468, "uring": 1469, "Ġexec": 1470, "Ġfell": 1471, "ared": 1472, "Ġaction": 1473, "Ġhome": 1474, "Ġdeath": 1475, "was": 1476, "Ġev": 1477, "uss": 1478, "Ġune": 1479, "Ġview": 1480, "Ġfav": 1481, "Ġregard": 1482, "from": 1483, "ĠĠĠĠĠ": 1484, "Ġletters": 1485, "Ġsat": 1486, "lle": 1487, "OL": 1488, "Ġmer": 1489, "ustom": 1490, "Ġsociety": 1491, "Ġhope": 1492, "ides": 1493, "pose": 1494, "Ġcases": 1495, "Ġfall": 1496, "Ġrather": 1497, "ters": 1498, "ief": 1499, "Ġcivil": 1500, "Ġconsequ": 1501, "arent": 1502, "ead": 1503, "ners": 1504, "Ġdoubt": 1505, "Ġdra": 1506, "cont": 1507, "Ġrepresent": 1508, "My": 1509, "Ġ6": 1510, "Ġwhether": 1511, "ĠCom": 1512, "Ġtrans": 1513, "Ġcompany": 1514, "Ġopin": 1515, "Ġtaken": 1516, "iod": 1517, "Ġprof": 1518, "].": 1519, "att": 1520, "Ġdifficult": 1521, "AT": 1522, "ered": 1523, "Ġfree": 1524, "Ġval": 1525, "cri": 1526, "cons": 1527, "Ġanim": 1528, "alth": 1529, "Ġcourt": 1530, "Ġadvant": 1531, ",âĢĿ": 1532, "vere": 1533, "Ġcourse": 1534, "Ġmaster": 1535, "Ġfort": 1536, ",âĢĻ": 1537, "Ġorg": 1538, "igin": 1539, "where": 1540, "Ġhab": 1541, "ortion": 1542, "ls": 1543, "Ġsw": 1544, "Ġneed": 1545, "Ġperiod": 1546, "Ġhands": 1547, "den": 1548, "Ġback": 1549, "Ġfo": 1550, "wise": 1551, "Ġes": 1552, "Ġcap": 1553, "Ġenough": 1554, "gr": 1555, "Ġappear": 1556, "Ġfrequ": 1557, "Ġlibert": 1558, "habit": 1559, "KING": 1560, "haps": 1561, "Ġwhose": 1562, "LA": 1563, "ship": 1564, "Ġmin": 1565, ".âĢĿ": 1566, "ency": 1567, "Ġyourself": 1568, "ns": 1569, "Ġswe": 1570, "ĠTo": 1571, "atch": 1572, "Ġvo": 1573, "ĠWh": 1574, "fully": 1575, "spe": 1576, "Ġau": 1577, "Ġyear": 1578, "ĠĠĠĠĠĠ": 1579, "rodu": 1580, "Ġspir": 1581, "'t": 1582, "Ġtook": 1583, "ording": 1584, "Â»": 1585, "Ġ8": 1586, "Ġcause": 1587, "Ġprob": 1588, "Ġsaw": 1589, "Ġpred": 1590, "Ġestabl": 1591, "luence": 1592, "ying": 1593, "Ġser": 1594, "ready": 1595, "Ġlim": 1596, "Ġland": 1597, "Ġmyself": 1598, "umst": 1599, "ues": 1600, "Ġlive": 1601, "There": 1602, "alf": 1603, "Ġphr": 1604, "IUS": 1605, "Ġnext": 1606, "ows": 1607, "Ġwhile": 1608, "Ġshort": 1609, "ield": 1610, "Ġseems": 1611, "RE": 1612, "Ġmet": 1613, "Ġpoor": 1614, "Ġwish": 1615, "Ġbu": 1616, "ash": 1617, "Ġconnect": 1618, "there": 1619, "poss": 1620, "Ġquite": 1621, "cial": 1622, "what": 1623, "this": 1624, "Ġfour": 1625, "Ġfull": 1626, "ĠWhat": 1627, "airs": 1628, "io": 1629, "Ġleft": 1630, "Ġknowledge": 1631, "Ġsingle": 1632, "Ġexcept": 1633, "who": 1634, "rance": 1635, "Ġneg": 1636, "Ġfeel": 1637, "ger": 1638, "dis": 1639, "Ġdel": 1640, "Ġhist": 1641, "Ġcoun": 1642, "stem": 1643, "Ġlanguage": 1644, "Ġlui": 1645, "Ġstat": 1646, "oney": 1647, "itÃ©": 1648, "ists": 1649, "oud": 1650, "ousse": 1651, "Ġleave": 1652, "Ġobserv": 1653, "jun": 1654, "Ġhold": 1655, "eties": 1656, "ĠThese": 1657, "Ġaffect": 1658, "Ġdev": 1659, "itten": 1660, "cend": 1661, "ARD": 1662, "ousseau": 1663, "Ġreturn": 1664, "atives": 1665, "my": 1666, "Ġ18": 1667, "land": 1668, "ĠThen": 1669, "Ġable": 1670, "no": 1671, "pal": 1672, "Ġdepend": 1673, "osed": 1674, "Ġstrong": 1675, "aw": 1676, "Ġage": 1677, "ires": 1678, "Ġquestion": 1679, "Ġsure": 1680, "Ġmeet": 1681, "Ġtimes": 1682, "Ġcent": 1683, "ĠLord": 1684, "Ġpeace": 1685, "Ġdistinct": 1686, "aid": 1687, "sp": 1688, "rect": 1689, "ĠPr": 1690, "Ġhel": 1691, "ames": 1692, "Ġdanger": 1693, "ĠEd": 1694, "Ġcrown": 1695, "Ġide": 1696, "Ġpast": 1697, "ĠDe": 1698, "ĠYork": 1699, "...": 1700, "solute": 1701, "When": 1702, "Ġdest": 1703, "leg": 1704, "Ġhuman": 1705, "ius": 1706, "Ġvirt": 1707, "por": 1708, "ision": 1709, "Ġfear": 1710, "Ġeyes": 1711, "Ġside": 1712, "Ġmother": 1713, "Ġgentle": 1714, "Ġabove": 1715, "Ġlearn": 1716, "Ġ19": 1717, "Ġnight": 1718, "Ġconstitution": 1719, "ils": 1720, "Ġmemb": 1721, "tempt": 1722, "would": 1723, "Ġbrother": 1724, "Ġsentences": 1725, "ĠOn": 1726, "ize": 1727, "rew": 1728, "Ġprom": 1729, "ided": 1730, "Ġhard": 1731, "osition": 1732, "ches": 1733, "Ġmark": 1734, "iol": 1735, "Ġinform": 1736, "aris": 1737, "Ġforce": 1738, "used": 1739, "well": 1740, "Ġfair": 1741, "Ġclose": 1742, "ĠĠĠĠĠĠĠĠĠĠĠ": 1743, "fort": 1744, "him": 1745, "Ġ7": 1746, "Ġfut": 1747, "Ġelect": 1748, "Ġfollowing": 1749, "Ġsimple": 1750, "Ġanswer": 1751, "Ġadjective": 1752, "St": 1753, "Ġcur": 1754, "though": 1755, "reme": 1756, "Ġtreat": 1757, "Ġcoll": 1758, "rop": 1759, "iving": 1760, "Ġindeed": 1761, "HA": 1762, "Ġfin": 1763, "iff": 1764, "Ġspirit": 1765, "Ġmil": 1766, "alt": 1767, "Ġreal": 1768, "ĠDo": 1769, "Ġparliament": 1770, "tended": 1771, "body": 1772, "Ġobl": 1773, "Ġsomething": 1774, "outh": 1775, "Ġmeaning": 1776, "reg": 1777, "Ġpowers": 1778, "Ġlatter": 1779, "ploy": 1780, "Ġcontr": 1781, "LET": 1782, "Ġtend": 1783, "ques": 1784, "ries": 1785, "ember": 1786, "ling": 1787, "Ġrelig": 1788, "itizens": 1789, "Ġcol": 1790, "Ġpolitical": 1791, "atever": 1792, "Ġmembers": 1793, "can": 1794, "Ġchang": 1795, "do": 1796, "Ġheard": 1797, "Ġorigin": 1798, "iction": 1799, ",\"": 1800, "Ġlay": 1801, "ets": 1802, "Ġmakes": 1803, "Ġmag": 1804, "cious": 1805, "ĠÃ©t": 1806, "Ġtw": 1807, "Ġsepar": 1808, "Ġalready": 1809, "know": 1810, "Ġsla": 1811, "KE": 1812, "Ġpract": 1813, "iful": 1814, "Ġsit": 1815, "Ġtown": 1816, "Ġexpl": 1817, "Ġchange": 1818, "iar": 1819, "Ġexerc": 1820, "Ġnouns": 1821, "!âĢĿ": 1822, "Ġtold": 1823, "ĠAn": 1824, "Ġoccasion": 1825, "err": 1826, "Ġgreater": 1827, "new": 1828, "asure": 1829, "Ġ16": 1830, "lt": 1831, "rem": 1832, "Ġcustom": 1833, "Ġmaj": 1834, "âĢĻ,": 1835, "Ġalone": 1836, "Ġden": 1837, "Ġrights": 1838, "ĠÂ«": 1839, "pers": 1840, "sem": 1841, "Ġgave": 1842, "ĠAd": 1843, "Ġneither": 1844, "ĠHen": 1845, "Ġimportant": 1846, "Ġindepend": 1847, "ĠConstitution": 1848, "aven": 1849, "Ġworth": 1850, "Ġgenerally": 1851, "ech": 1852, "gu": 1853, "ines": 1854, "Ġdut": 1855, "Ġknown": 1856, "Ġcourts": 1857, "RI": 1858, "orrow": 1859, "ulation": 1860, "ĠNo": 1861, "Ġcommun": 1862, "Ġbring": 1863, "Ġfriends": 1864, "ism": 1865, "onder": 1866, "Ġwoman": 1867, "Ġmine": 1868, "Ġsystem": 1869, "oment": 1870, "Ġmanners": 1871, "Ġpop": 1872, "Ãªme": 1873, "iers": 1874, "Ġ*": 1875, "Ġimpro": 1876, "Ġinfluence": 1877, "uct": 1878, "Ġsort": 1879, "Ġincl": 1880, "ĠInd": 1881, "ified": 1882, "ĠĠĠĠĠĠĠĠĠĠĠĠĠ": 1883, "ior": 1884, "ises": 1885, "Ġbear": 1886, "Ġgot": 1887, "ĠNor": 1888, "Ġadverb": 1889, "des": 1890, "Ġbar": 1891, "utive": 1892, "Ġperhaps": 1893, "perience": 1894, "ev": 1895, "Ġwife": 1896, "Ġdiv": 1897, "_;": 1898, "ks": 1899, "Ġbre": 1900, "Ġben": 1901, "Ġ11": 1902, "Ġpurpose": 1903, "Ġelse": 1904, "lf": 1905, "ting": 1906, "Ġut": 1907, "Ġbeh": 1908, "itude": 1909, "Ġrule": 1910, "Ġliberty": 1911, "Ġchildren": 1912, ".;": 1913, "ched": 1914, "oh": 1915, "Ġattention": 1916, "Ġincre": 1917, "Ġcircumst": 1918, "Ġhelp": 1919, "cr": 1920, "Ġbird": 1921, "Ġnations": 1922, "tern": 1923, "Ã©t": 1924, "Ġabsolute": 1925, "acc": 1926, "Ġweak": 1927, "ĠFrance": 1928, "rench": 1929, "more": 1930, "ific": 1931, "Ġconcer": 1932, "Ġexpect": 1933, "your": 1934, "Ġremark": 1935, "range": 1936, "Ġboy": 1937, "âĢĺ": 1938, "Ġinhabit": 1939, "idence": 1940, "Ġsound": 1941, "Ġthous": 1942, "Ġblood": 1943, "Ġopinion": 1944, "ghter": 1945, "----": 1946, "Ġunderstand": 1947, "LO": 1948, "Ġbrought": 1949, "Ġdays": 1950, "Ġwhy": 1951, "inter": 1952, "Ġgen": 1953, "when": 1954, "ruction": 1955, "RO": 1956, "ics": 1957, "Ġallow": 1958, "Ġclauses": 1959, "ĠKing": 1960, "Ġwis": 1961, "ĠĠĠĠĠĠĠĠĠĠ": 1962, "let": 1963, "ĠRousseau": 1964, "ĠThus": 1965, "LI": 1966, "No": 1967, "unt": 1968, "Ġri": 1969, "Ġ12": 1970, "ized": 1971, "Ġgrou": 1972, "Ġmoney": 1973, "ingu": 1974, "Ġbegin": 1975, "Ġorgan": 1976, "Ġaccording": 1977, "Ġemploy": 1978, "ination": 1979, "Ġsend": 1980, "Ġcomb": 1981, "Ġeng": 1982, "icient": 1983, "Ġverbs": 1984, "ille": 1985, "ieu": 1986, "should": 1987, "Ġpossible": 1988, "Ġadvantage": 1989, "ery": 1990, "ules": 1991, "Ġenc": 1992, "Ã¨re": 1993, "Ġsoul": 1994, "gen": 1995, "Ġed": 1996, "Ġsens": 1997, "Ġduring": 1998, "iffe": 1999, "ĠĠĠĠĠĠĠĠĠĠĠĠĠĠĠĠĠĠĠ": 2000, "Ġnational": 2001, "So": 2002, "iter": 2003, "Ġpay": 2004, "Ġhalf": 2005, "aining": 2006, "TION": 2007, "Ġpredicate": 2008, "__": 2009, "Ġintrodu": 2010, "cing": 2011, "ising": 2012, "enty": 2013, "Ġinfin": 2014, "Ġforeign": 2015, "ique": 2016, "king": 2017, "aries": 2018, "Ġund": 2019, "undred": 2020, "How": 2021, "Ġir": 2022, "Ġob": 2023, "isf": 2024, "ott": 2025, "Ġdear": 2026, "ĠAt": 2027, "raph": 2028, "Ġcho": 2029, "ption": 2030, "Ġplan": 2031, "Ġrev": 2032, "ords": 2033, "Ġinstance": 2034, "Ġcomplete": 2035, "itary": 2036, "Ġbo": 2037, "ilt": 2038, "Ġappl": 2039, "fin": 2040, "eng": 2041, "Ġmoment": 2042, "orse": 2043, "were": 2044, "Ġentire": 2045, "ĠĠĠĠĠĠĠĠĠĠĠĠĠĠĠĠĠĠĠĠĠĠĠĠĠĠĠĠĠĠĠĠĠĠĠĠĠĠĠ": 2046, "Ġfavor": 2047}, "merges": ["Ġ t", "h e", "Ġ a", "č Ċ", "i n", "Ġt he", "Ġ o", "r e", "Ġ Ġ", "Ġ s", "e r", "Ġ w", "n d", "o n", "a t", "i t", "o u", "i s", "e n", "Ġ b", "Ġo f", "e s", "Ġ c", "Ġ m", "Ġ p", "o r", "Ġ f", "a n", "e d", "Ġa nd", "Ġ h", "Ġt o", "Ġ in", "Ġ d", "a r", "Ġt h", "l l", "ĠĠ ĠĠ", "Ġ l", "Ġ n", "in g", "i c", "i on", "a s", "o m", "Ġb e", "l e", "Ġ e", "v e", "en t", "s e", "o t", "s t", "a l", "u t", "Ġ g", "c t", "Ġ I", "c e", "Ġ is", "Ġ y", "Ġw h", "v er", "o w", "i m", "l y", "Ġ it", "Ġth at", "Ġ re", "Ġy ou", "Ġ u", "i r", "Ġh a", "Ġ he", "e t", "l d", "Ġf or", "u r", "a y", "Ġa s", "i d", "ĠĠĠĠ ĠĠĠĠ", "r o", "Ġ T", "Ġ _", "it h", "Ġo n", "t he", "g h", "i ll", "ic h", "q u", "â Ģ", "Ġn ot", "c h", "i f", "Ġa n", "a m", "Ġw e", "Ġw ith", "Ġo r", "Ġd e", "at ion", "a d", "Ġwh ich", "Ġc on", "t er", "p e", "Ġb y", "Ġs u", "Ġa re", "a ll", "r i", "es s", "Ġha ve", "Ġs t", "Ġs e", "o d", "a in", "ou ld", "a nd", "i l", "re s", "Ġ S", "t h", "u l", "Ġe x", "o re", "Ġ A", "gh t", "es t", "ĠT he", "Ġs h", "at e", "Ġc om", "k e", "i ve", "Ġm e", "he r", "e ct", "Ġa t", "Ġs o", "an t", "Ġh is", "u s", "a b", "Ġw ill", "Ġb ut", "g e", "er s", "r a", "r om", "Ġ v", "Ġw as", "Ġa ll", "Ġn e", "i es", "Ġth is", "ĠĠ Ġ", "Ġthe y", "ou r", "i v", "m ent", "ou s", "o s", "Ġ k", "it y", "t o", "u st", "Ã ©", "Ġ C", "o l", "t e", "Ġp ro", "ver y", "Ġg o", "Ġm an", "p p", "ar t", "Ġthe ir", "n t", "Ġf rom", "i g", "is t", "om e", "u re", "Ġ qu", "or d", "l a", "the r", "Ġl e", "Ġw he", "Ġyou r", "r u", "am e", "Ġm y", "Ġthe m", "Ġ M", "p le", "Ġd o", "o se", "u m", "i e", "re d", "Ġ W", "Ġc h", "Ġh im", "Ġ H", "âĢ Ļ", "ar d", "Ġ B", "en ce", "Ġl a", "ion s", "Ġu p", "u n", "Ġon e", "Ġa d", "in d", "re at", "Ġn o", "Ġu n", "c i", "o st", "e m", "Ġ 1", "p er", "Ġs a", "Ġm ay", "Ġ P", "se l", "Ġ j", "Ġa l", "Ġ E", "Ġc an", "j ect", "_ ,", "as t", "ĠĠĠĠĠĠĠĠ ĠĠĠĠĠĠĠĠ", "on g", "or t", "T he", "a k", "Ġo ther", "i ght", "Ġwh o", "- -", "an s", "Ġw ould", "Ġthe re", "Ġu s", "ab le", "an ce", "Ġ r", "f f", "Ġ F", "Ġm ore", "c c", "ou t", "Ġ âĢ", "p t", "Ġp r", "a ke", "i re", "Ġha d", "c k", "ar y", "Ġ en", "' s", "Ġp art", "ou nd", "Ġ if", "a re", "Ġh as", "Ġ im", "o nd", "Ġa b", "n ow", "w e", "o f", "Ġf a", "Ġth an", "Ġbe en", "n ot", "it t", "c es", "Ġan y", "a g", "u d", "er t", "is h", "Ġth ou", "on e", "Ġ L", "Ġ G", "Ġa m", "im e", "b ject", "p l", "Ġfor m", "Ġp e", "Ġwe re", "in e", "all y", "Ġo ur", "Ġwhe n", "a u", "r y", "Ġ N", "Ġs pe", "Ġg reat", "b e", "o k", "Ġ (", "as s", "res s", "Ġs ome", "Ġup on", "re e", "sel f", "i b", "ic e", "Ġf e", "f ore", "Ġ very", "b l", "Ġd is", "Ġhe r", "Ġ R", "v en", "Ġ O", "Ġa r", "f e", "Ġcom m", "Ġwh at", "Ġit s", "ct ion", "ĠS t", "Ġsh ould", "Ġe t", "Ġw or", "Ġ D", "ou nt", "Ġp re", "ĠâĢ ĺ", "Ġd es", "n e", "c on", "h at", "Ġl o", "Ġp er", "id e", "Ġp l", "ation s", "a p", "Ġthe se", "a ge", "_ .", "u ch", "Ġs he", "Ġt ime", "Ġm ust", "Ġa g", "Ġon ly", "Ġin to", "Ġk now", "w n", "at es", "ou n", "a ch", "Ġgo od", "nd er", "as e", "m e", "u e", "ot her", "is e", "Ġla w", "n g", "f or", "Ġin d", "Ġcon t", "Ġsh all", "Ġp o", "i ke", "w o", "Ġt r", "ow n", "ing s", "an g", "Ġs ame", "ow er", "Ġl et", "Ġg r", "en s", "Ġo ut", "it e", "ad e", "it ion", "Ġn at", "ou gh", "ir st", "ig n", "Ġm ost", "ay s", "p os", "Ġsa id", "h is", "ĠI t", "H E", "en er", "Ġth ose", "w h", "a c", "Ġsu ch", "Ġse e", "' d", "Ġw ord", "res ent", "Ġe very", "at ed", "ver n", "Ġ 2", "b er", "s o", "ar s", "o ple", "e p", "on s", "in t", "Ġcon s", "e l", "v es", "Ġn ow", "b s", "Ġc l", "Ġt wo", "ot h", "c ed", "Ġbe t", "he d", "Ġwe ll", "a ve", "Ġ Y", "a ct", "ul t", "c ess", "o ll", "re n", "itt le", "ĠI n", "it her", "E N", "Ġd if", "c om", "Ġm uch", "E R", "Ġthe n", "Ġl ike", "o od", "i ous", "at h", "c l", "Ġs p", "Ġb r", "Ġcom p", "i z", "e nd", "in k", "Ġo wn", "if e", "Ġre s", "Ġh ow", "A nd", "i ed", "st it", "ĠB ut", "o p", "er v", "Ġim p", "Ġu se", "Ġp ers", "I N", "Ġs ent", "m an", "ut ion", "m er", "Ġpe ople", "Ġf irst", "Ġ J", "f ul", "âĢ Ŀ", "Ġa pp", "e x", "Ġl ittle", "at ive", "Ġk ing", "ut h", "Ġp ower", "ic al", "Ġof f", "Ġwhe re", "O N", "u al", "Ġre m", "Ġ \"", "Ã ł", "Ġa cc", "or s", "ri ght", "ic i", "d u", "th at", "ur n", "Ġm en", "Ġu nder", "os s", "vern ment", "e ll", "Ġm ake", "Ġg ener", "Ġ U", "he n", "ert ain", "o y", "A R", "ul ar", "Ġbe ing", "Ġp la", "iv es", "at her", "f ter", "Ġag ain", "c ies", "ĠH e", "Ġ V", "n ess", "u bl", "w ard", ". ]", "s h", "r it", "au se", "ic t", "Ġm ade", "pe ct", "it ed", "Ġre p", "Ġp ar", "Ġwith out", "or y", "Ġman y", "Ġbe c", "i le", "Ġl ong", "ut e", "Ġs ay", "a v", "h ing", "Ġc ould", "Ġex p", "u ll", "o ot", "Ġc all", "Ġpr in", "Ġ ver", "ant s", "Ġsu bject", "e ver", "l es", "Ġ est", "Ġne ver", "Ġd ist", "t en", "Ġus ed", "i ly", "Ġre l", "Ġqu e", ". +", "o ld", "Ġm od", "s u", "Ġin f", "ng l", "t y", "Ġe ach", "Ġ +", "u se", "Ġc our", "ĠSt ates", "re nt", "l ed", "i ld", "Ġo bject", "ar k", "at ter", "Ġc ount", "he s", "e c", "i p", "Ġto o", "Ġ Ãł", "ur al", "ubl ic", "Ġ 3", "Ġy e", "Ġ ro", "Ġlet ter", "Ġch ar", "Ġa ct", "Ġo ver", "it s", "o pe", "ib le", "Ġ right", "Ġhe re", "âĢ Ķ", "Ġbe fore", "Ġword s", "ĠU n", "Ġp le", "Ġf l", "Ġt ake", "Ġha nd", "Ġin st", "mer ic", "ĠW e", "Ġre g", "ver s", "Ġl ife", "ĠA nd", "Ġe m", "Ġor d", "wh ich", "ri v", "Ġdif fe", "Ġne w", "Ġbe l", "for m", "Ġse c", "Ġcan not", "Ġ ra", "te nd", "Ġcomm on", "Ġa p", "im es", "i al", "Ġnat ure", "E S", "t s", "Ġcom e", "o g", "en se", "c y", "l ess", "Ã ¨", "ic k", "pe nd", "ment s", "Ġj ust", "o ok", "ff ect", "Ġn um", "Ġth ink", ". .", "Ġy et", "w ays", "om et", "Ġgo vernment", "Ġm ight", "Ġ ent", "Ġm a", "ĠT his", "we en", "v ent", "Ġa fter", "b le", "he re", "is s", "Ġf ound", "Ġg ive", "Ġe nd", "p h", "a it", "Ġspe cies", "Ġth r", "Ġp resent", "Ġthou ght", "ou se", "Ġe ven", "ĠĠĠĠĠĠĠĠ ĠĠĠĠ", "Ġl ess", "Ġsu pp", "o ve", "d e", "Ġb oth", "ĠâĢ ľ", "as on", "re st", "Ġp oss", "ar i", "Ġex t", "or ity", "is hed", "Ġsu b", "Ġo ld", "ĠE ngl", "Ġcon f", "ri end", "Ġp ass", "p ro", "Ġwor ld", "Ġal so", "T I", "Ġf ind", "Ġt ru", "Ġc la", "w ith", "Ġc ertain", "I n", "n er", "n ing", "od y", "at er", "Ġat t", "et y", "Ġpers on", "ent ly", "Ġ ru", "not e", "Ġd id", "i x", "stit ution", "g et", "Ġa c", "oot note", "ĠI f", "Ġre ad", "F ootnote", "oll ow", "sel ves", "Ġd ay", "an y", "Ġl ast", "Ġab out", "Ġthou gh", "Ġlo ok", "ĠA meric", "Ġse em", "r an", "Ġc ond", "Ġc or", "ri b", "Ġl es", "Ġal ways", "i gh", "in ess", "Ġle g", "U S", "Ġst ill", "on t", "l i", "as es", "b t", "Ġw ay", "ain t", "Ġne cess", "ent s", "ce pt", "it ies", "Ġin te", "Ġlaw s", "p r", "Ġpla ce", ". _", "Ġbet ween", "Ġw r", "Ġan other", "il ity", "Ġf ar", "in ce", "re t", "re ad", "Ġexp ress", "Ġb l", "Ġc ase", "O R", "Ġn or", "Ġas s", "ĠT h", "al s", "id er", "ra ct", "A N", "Ġs c", "le ct", "o c", "E T", "Ġad v", "Ġwor k", "W h", "u res", "T o", "Ġthere fore", "Ġa w", "Ġth y", "Ġpro per", "f ect", "Ġf riend", "v ing", "ĠT HE", "I I", "Ġo p", "m ost", "a ce", "Ġa uth", "a ck", "Ġs omet", "ĠF or", "Ġap pe", "i a", ". âĢĻ", "Ġth ings", "Ġspe ak", "Ġc o", "Ġbe g", "Ġof ten", "en ces", "Ġc ar", "Ġp ur", "Ġe ither", "iv ed", "Ġf ollow", "Ġs et", "Ġc e", "Ġme ans", "T h", "ĠM r", "ire ct", "iv id", "Ġ 4", "m in", "Ġgener al", "B ut", "u x", "qu e", "Ġb est", "ir d", "Ġ ke", "Ġn oun", "Ġad d", ". \"", "v ed", "Ġex am", "Ġk ind", "p ar", "ĠSt ate", "T HE", "Ġme an", "Ġ K", "Ġin ter", "a ir", "Ġcall ed", "Ã ª", "Ġprin ci", "Ġp ol", "Ġj ud", "Ġhim self", "Ġc r", "Ġs on", "Ġpo int", "Ġbet ter", "Ġc ame", "IN G", "Ġd own", "Ġp h", "et h", "Ġ1 7", "Ġdis c", "ou ght", "ĠThe y", "a ut", "Ġwho le", "us es", "an ces", "Ġs im", "and s", "ĠĠĠĠĠĠĠĠĠĠĠĠĠĠĠĠ ĠĠĠĠĠĠĠĠĠĠĠĠĠĠĠĠ", "a il", "Ġind e", "Ġsent ence", "u p", "Ġin t", "ĠY ou", "ĠĠĠĠ ĠĠĠ", "Ġdiffe rent", "Ġp ublic", "Ġt ak", "is l", "ver al", "Ġp ut", "Ġst r", "Ġre st", "Ġchar act", "Ġ il", "b y", "as ter", "Ġst ate", "Ġdo es", "Ġmod if", "in ct", "Ġnum ber", "Ġha pp", "Ġver b", "Ġ Ã©", "Ġo cc", "ed er", "Ġre ason", "Ġso ci", "Ġcount ry", "e w", "Ġnot hing", "ain s", "Ġple as", "Ġe ver", "u nd", "Ġd u", "Ġfa ct", "Ġnat ural", "ic ular", "Ġar t", "Ġs ur", "Ġqu i", "Ġth ree", "ain ed", "Ġs ing", "i ent", "Ġagain st", "Ġtru e", "H e", "Ġo u", "Ġw ar", "Ġre t", "Ġbec ause", "i er", "u ally", "Ġl ar", "ri ed", "per i", "Ġt ell", "Ġe ar", "Ġin c", "Ġc are", "Ġso on", "Ġlo ve", "T ER", "Ġd ou", "ent ion", "m b", "m ed", "ren ce", "T hat", "ĠC h", "ce ed", "Ġde g", "un e", "at ure", "am ent", "Ġse veral", "Ġord er", "Ġm ind", ", --", "Ġs m", "Ġs y", "ab ly", "Ġch ild", "Ġg l", "Ġg iv", "Ġde c", "Ġthr ough", "I t", "in s", "Ġthe e", "Ġform s", "Ġo bs", "er ve", "ĠA s", "Ġv ari", "Ġbel ie", "Ġe qu", "se qu", "in ed", "l u", "Ġfe w", "i an", "get her", "Ġm ak", "r ow", "Ġa ff", "ag es", "on oun", "Ġth ing", "Ġb us", "I O", "Ġn ame", "Ġimp ort", "Ġs ou", "Ġcont in", "ĠC on", "Ġinte rest", "N D", "Ġdif f", "Ġye ars", "Ġ [", "Ġhe art", "p art", "Ġhe ad", "Ġsu ff", "Ġpro du", "f t", "ot e", "Ġan s", "Ġthem selves", "Ġre f", "ĠThe re", "Ġp res", "h ave", "d ay", "Ġm ar", "Ġl ord", "y ou", "Ġn ation", "Ġaw ay", "w ill", "Ġad ject", "pl es", "Ġcons ider", "ic ate", "te m", "m s", "o ck", "re ed", "Ġf ore", "ivid ual", "al k", "Ġcom ple", "Ġse en", "I C", "Ġw ant", "id ent", "Ġst ru", "Ġsh ow", "Ġon ce", "ic es", "Ġd one", "b ut", "Ġex ist", "g ed", "Ġs erv", "ie w", "Ġg et", "Ġpro p", "Ġpro v", "ow ers", "le ction", "Ġha ving", "ir c", "U C", "or n", "âĢ ľ", "W hat", "is ed", "Ġe y", "Ġg ra", ". ,", "Ġother s", "Ġpart icular", "ull y", "Ġh on", "Ġle ast", "Ġb ody", "ic ation", "our s", "Ġre c", "Ġre ce", "Ġnecess ary", "Ġhow ever", "Ġt e", "I S", "Ġm on", "Ġqu est", "s ol", "cc ess", "ang u", "Ġh um", "Ġa v", "re qu", "Ġs l", "Ġw ent", "o int", "Ġf ather", "a pp", "m en", "F or", "Ġman ner", "t re", "Ġt er", "Ġ '", "Ġb ook", "Ġh ouse", ". --", "a is", "a le", "st and", "Ġleg isl", "ĠW hen", "ic ult", "Ġyou ng", "at ing", "ĠĠĠĠĠĠĠĠ Ġ", "Ġas k", "ate ly", "Ġcl ass", "Ġres pect", "Ġh ath", "ĠN ew", "ab l", "Ġac qu", "it ions", "Ġit self", "Ġth us", "Ġpr onoun", "ĠA ND", "Ġad ver", "a x", "Ġd ans", "Ġl ib", "Ġwh om", "Ġbus iness", "s s", "m on", "Ġ 5", "Ġre qu", "Ġm or", "Ġo pp", "Ġe as", "Ġgiv en", "g es", "th ing", "Ġin s", "ĠUn ited", "Ġc a", "Ġin v", "or k", "ve l", "Ġposs ess", "Ġw om", "Ġform er", "g o", "led ge", "e f", "er c", "I f", "ur ope", "0 0", "p re", "Ġg u", "ĠEngl and", "ud e", "Y ou", "iv il", "A L", "Ġauth ority", "p s", "an ge", "Ġm atter", "o ver", "c er", "d om", "ar n", "L E", "Ġpol it", "Ġcharact er", "Ġp riv", "i red", "Ġhe ar", "Ġlar ge", "Ġpart s", "en ed", "Ġe ffect", "Ġto gether", "Ġj e", "Ġcon st", "ĠS o", "ward s", "Ġt urn", "Ġbelie ve", "n ect", "it iz", "Ġp as", "Ġind ividual", "pos ition", "A s", "W e", "is on", "b r", "Ġc he", "ang er", "x t", "Ġst and", "Ġam ong", "Ġs ense", "Ġs ince", "Ġd irect", "u i", "an k", "ĠUn ion", "re l", "e e", "ur y", "h ab", "the y", "Ġke ep", "r at", "Ġpers ons", "ent le", "Ġ ill", "Ġde f", "the ir", "Ġet c", "Ġsec ond", "Ġst ud", "T his", "Ġwith in", "E L", "i en", "Ġsomet imes", "Ġc le", "Ġp our", "Ġdeg ree", "Ġcla use", "i vers", "Ġd et", "ur s", "ĠAmeric a", "Ġpl us", "Ġm o", "Ġst re", "' ll", "Ġbec ome", "ĠEngl ish", "it ive", "Ġe l", "Ġsm all", "c ul", "Ġt em", "Ġbe aut", "Ġtr uth", "Ġc irc", "ĠG od", "ĠO F", "ro ss", "al ity", "Ġ Â", "Ġsu ccess", ") .", "Ġt ra", "Ġs ir", "the m", "ord in", "Ġt ill", "ar ly", "itt ed", "Ġd Ã©", ") ,", "ĠE urope", "Ġou ght", "Ġw rit", "Ġl ight", "im ent", "ro g", "y s", "ist r", "Ġper fect", "re ly", "Ġw ater", "w er", "om in", "Ġad m", "pos ed", "Ġh igh", "Ġal most", "med i", "g g", "Ġacc ount", "stit ut", "ap s", "Ġf am", "ar ch", "ir t", "li ament", "Ġa ir", "Ġm is", "Ġl angu", "ct ions", "Ġde m", "Ġexam ple", "eder al", "as ion", "O M", "ur ing", "Ġex ec", "Ġfe ll", "a red", "Ġa ction", "Ġh ome", "Ġde ath", "w as", "Ġe v", "us s", "Ġun e", "Ġv iew", "Ġfa v", "Ġreg ard", "f rom", "ĠĠĠĠ Ġ", "Ġletter s", "Ġs at", "ll e", "O L", "Ġm er", "ust om", "Ġsoci ety", "Ġh ope", "id es", "p ose", "Ġc ases", "Ġf all", "Ġr ather", "ter s", "ie f", "Ġc ivil", "Ġcon sequ", "are nt", "e ad", "n ers", "Ġdou bt", "Ġd ra", "con t", "Ġrep resent", "M y", "Ġ 6", "Ġwhe ther", "ĠC om", "Ġtr ans", "Ġcomp any", "Ġop in", "Ġtak en", "i od", "Ġpro f", "] .", "at t", "Ġdiff icult", "A T", "e red", "Ġf ree", "Ġv al", "c ri", "con s", "Ġan im", "al th", "Ġcour t", "Ġadv ant", ", âĢĿ", "ve re", "Ġcour se", "Ġm aster", "Ġfor t", ", âĢĻ", "Ġor g", "ig in", "w here", "Ġha b", "ort ion", "l s", "Ġs w", "Ġne ed", "Ġper iod", "Ġhand s", "d en", "Ġb ack", "Ġf o", "w ise", "Ġ es", "Ġc ap", "Ġen ough", "g r", "Ġappe ar", "Ġf requ", "Ġlib ert", "hab it", "K ING", "h aps", "Ġwh ose", "L A", "sh ip", "Ġm in", ". âĢĿ", "en cy", "Ġyour self", "n s", "Ġs we", "ĠT o", "at ch", "Ġv o", "ĠW h", "f ully", "s pe", "Ġa u", "Ġye ar", "ĠĠĠĠ ĠĠ", "ro du", "Ġsp ir", "' t", "Ġto ok", "ord ing", "Â »", "Ġ 8", "Ġc ause", "Ġpro b", "Ġsa w", "Ġp red", "Ġest abl", "lu ence", "y ing", "Ġs er", "read y", "Ġl im", "Ġl and", "Ġmy self", "um st", "u es", "Ġl ive", "The re", "al f", "Ġph r", "I US", "Ġne xt", "ow s", "Ġwh ile", "Ġsh ort", "ie ld", "Ġseem s", "R E", "Ġm et", "Ġpo or", "Ġw ish", "Ġb u", "as h", "Ġcon nect", "the re", "pos s", "Ġqu ite", "ci al", "w hat", "th is", "Ġf our", "Ġf ull", "ĠW hat", "air s", "i o", "Ġle ft", "Ġknow ledge", "Ġsing le", "Ġex cept", "wh o", "r ance", "Ġne g", "Ġfe el", "g er", "d is", "Ġde l", "Ġhis t", "Ġc oun", "st em", "Ġlangu age", "Ġl ui", "Ġst at", "one y", "it Ã©", "ist s", "ou d", "ous se", "Ġle ave", "Ġobs erv", "j un", "Ġh old", "et ies", "ĠThe se", "Ġa ffect", "Ġde v", "itt en", "ce nd", "AR D", "ousse au", "Ġret urn", "at ives", "m y", "Ġ1 8", "l and", "ĠThe n", "Ġab le", "n o", "p al", "Ġde pend", "os ed", "Ġstr ong", "a w", "Ġa ge", "i res", "Ġquest ion", "Ġsu re", "Ġme et", "Ġt imes", "Ġc ent", "ĠL ord", "Ġpe ace", "Ġdist inct", "a id", "s p", "re ct", "ĠP r", "Ġhe l", "am es", "Ġd anger", "ĠE d", "Ġcr own", "Ġ ide", "Ġp ast", "ĠD e", "ĠY ork", ".. .", "sol ute", "W hen", "Ġd est", "le g", "Ġhum an", "i us", "Ġv irt", "p or", "is ion", "Ġfe ar", "Ġey es", "Ġs ide", "Ġm other", "Ġg entle", "Ġab ove", "Ġle arn", "Ġ1 9", "Ġn ight", "Ġcon stitution", "il s", "Ġme mb", "tem pt", "w ould", "Ġbr other", "Ġsent ences", "ĠO n", "iz e", "re w", "Ġp rom", "id ed", "Ġh ard", "os ition", "c hes", "Ġm ark", "i ol", "Ġin form", "ar is", "Ġfor ce", "us ed", "we ll", "Ġfa ir", "Ġcl ose", "ĠĠĠĠĠĠĠĠ ĠĠĠ", "f ort", "h im", "Ġ 7", "Ġf ut", "Ġe lect", "Ġfollow ing", "Ġsim ple", "Ġans wer", "Ġadject ive", "S t", "Ġc ur", "th ough", "re me", "Ġt reat", "Ġc oll", "ro p", "iv ing", "Ġinde ed", "H A", "Ġf in", "if f", "Ġspir it", "Ġm il", "al t", "Ġre al", "ĠD o", "Ġpar liament", "tend ed", "b ody", "Ġo bl", "Ġsomet hing", "ou th", "Ġmean ing", "re g", "Ġp owers", "Ġl atter", "pl oy", "Ġcont r", "L ET", "Ġt end", "qu es", "ri es", "em ber", "l ing", "Ġrel ig", "itiz ens", "Ġc ol", "Ġpolit ical", "ate ver", "Ġmemb ers", "c an", "Ġch ang", "d o", "Ġhe ard", "Ġor igin", "ict ion", ", \"", "Ġl ay", "et s", "Ġmak es", "Ġm ag", "ci ous", "ĠÃ© t", "Ġt w", "Ġse par", "Ġal ready", "k now", "Ġs la", "K E", "Ġp ract", "if ul", "Ġs it", "Ġto wn", "Ġex pl", "Ġch ange", "i ar", "Ġex erc", "Ġnoun s", "! âĢĿ", "Ġto ld", "ĠA n", "Ġocc asion", "er r", "Ġgreat er", "ne w", "as ure", "Ġ1 6", "l t", "re m", "Ġc ustom", "Ġma j", "âĢĻ ,", "Ġal one", "Ġd en", "Ġright s", "ĠÂ «", "p ers", "se m", "Ġg ave", "ĠA d", "Ġne ither", "ĠH en", "Ġimport ant", "Ġinde pend", "ĠCon stitution", "a ven", "Ġwor th", "Ġgener ally", "e ch", "g u", "in es", "Ġd ut", "Ġknow n", "Ġcour ts", "R I", "or row", "ul ation", "ĠN o", "Ġcomm un", "Ġbr ing", "Ġfriend s", "is m", "ond er", "Ġwom an", "Ġm ine", "Ġsy stem", "om ent", "Ġman ners", "Ġpo p", "Ãª me", "i ers", "Ġ *", "Ġimp ro", "Ġinf luence", "u ct", "Ġs ort", "Ġin cl", "ĠI nd", "if ied", "ĠĠĠĠĠĠĠĠĠĠĠĠ Ġ", "i or", "is es", "Ġbe ar", "Ġg ot", "ĠN or", "Ġadver b", "d es", "Ġb ar", "ut ive", "Ġper haps", "peri ence", "e v", "Ġw ife", "Ġd iv", "_ ;", "k s", "Ġb re", "Ġb en", "Ġ1 1", "Ġpur pose", "Ġel se", "l f", "t ing", "Ġ ut", "Ġbe h", "it ude", "Ġru le", "Ġlibert y", "Ġchild ren", ". ;", "c hed", "o h", "Ġatt ention", "Ġinc re", "Ġcirc umst", "Ġhel p", "c r", "Ġb ird", "Ġn ations", "ter n", "Ã© t", "Ġab solute", "a cc", "Ġwe ak", "ĠF rance", "ren ch", "m ore", "if ic", "Ġcon cer", "Ġex pect", "y our", "Ġrem ark", "ran ge", "Ġb oy", "âĢ ĺ", "Ġin habit", "id ence", "Ġs ound", "Ġth ous", "Ġbl ood", "Ġopin ion", "gh ter", "-- --", "Ġunder stand", "L O", "Ġbr ought", "Ġd ays", "Ġwh y", "in ter", "Ġg en", "w hen", "ru ction", "R O", "ic s", "Ġall ow", "Ġcla uses", "ĠK ing", "Ġw is", "ĠĠĠĠĠĠĠĠ ĠĠ", "le t", "ĠR ousseau", "ĠTh us", "L I", "N o", "u nt", "Ġ ri", "Ġ1 2", "iz ed", "Ġgr ou", "Ġm oney", "ing u", "Ġbeg in", "Ġorg an", "Ġacc ording", "Ġem ploy", "in ation", "Ġse nd", "Ġcom b", "Ġen g", "ici ent", "Ġver bs", "ill e", "ie u", "sh ould", "Ġposs ible", "Ġadvant age", "er y", "ul es", "Ġen c", "Ã¨ re", "Ġsou l", "g en", "Ġ ed", "Ġs ens", "Ġd uring", "if fe", "ĠĠĠĠĠĠĠĠĠĠĠĠĠĠĠĠ ĠĠĠ", "Ġnation al", "S o", "it er", "Ġp ay", "Ġh alf", "ain ing", "TI ON", "Ġpred icate", "_ _", "Ġint rodu", "c ing", "is ing", "ent y", "Ġinf in", "Ġfore ign", "i que", "k ing", "ar ies", "Ġu nd", "und red", "H ow", "Ġ ir", "Ġo b", "is f", "ot t", "Ġde ar", "ĠA t", "ra ph", "Ġch o", "pt ion", "Ġpl an", "Ġre v", "ord s", "Ġinst ance", "Ġcomple te", "it ary", "Ġb o", "il t", "Ġapp l", "f in", "en g", "Ġm oment", "or se", "we re", "Ġent ire", "ĠĠĠĠĠĠĠĠĠĠĠĠĠĠĠĠĠĠĠĠĠĠĠĠĠĠĠĠĠĠĠĠ ĠĠĠĠĠĠĠ", "Ġfav or"]}}