{"version": "1.0", "truncation": null, "padding": null, "added_tokens": [{"id": 0, "content": "<|endoftext|>", "single_word": false, "lstrip": false, "rstrip": false, "normalized": false, "special": true}], "normalizer": null, "pre_tokenizer": {"type": "ByteLevel", "add_prefix_space": false, "trim_offsets": true, "use_regex": true}, "post_processor": null, "decoder": null, "model": {"type": "BPE", "dropout": null, "unk_token": null, "continuing_subword_prefix": null, "end_of_word_suffix": null, "fuse_unk": false, "byte_fallback": false, "ignore_merges": false, "vocab": {"<|endoftext|>": 0, "!": 1, "\"": 2, "#": 3, "$": 4, "%": 5, "&": 6, "'": 7, "(": 8, ")": 9, "*": 10, "+": 11, ",": 12, "-": 13, ".": 14, "/": 15, "0": 16, "1": 17, "2": 18, "3": 19, "4": 20, "5": 21, "6": 22, "7": 23, "8": 24, "9": 25, ":": 26, ";": 27, "=": 28, "?": 29, "@": 30, "A": 31, "B": 32, "C": 33, "D": 34, "E": 35, "F": 36, "G": 37, "H": 38, "I": 39, "J": 40, "K": 41, "L": 42, "M": 43, "N": 44, "O": 45, "P": 46, "Q": 47, "R": 48, "S": 49, "T": 50, "U": 51, "V": 52, "W": 53, "X": 54, "Y": 55, "Z": 56, "[": 57, "]": 58, "^": 59, "_": 60, "a": 61, "b": 62, "c": 63, "d": 64, "e": 65, "f": 66, "g": 67, "h": 68, "i": 69, "j": 70, "k": 71, "l": 72, "m": 73, "n": 74, "o": 75, "p": 76, "q": 77, "r": 78, "s": 79, "t": 80, "u": 81, "v": 82, "w": 83, "x": 84, "y": 85, "z": 86, "{": 87, "|": 88, "}": 89, "~": 90, "¡": 91, "¢": 92, "£": 93, "¤": 94, "¦": 95, "§": 96, "¨": 97, "©": 98, "«": 99, "°": 100, "±": 101, "´": 102, "¶": 103, "·": 104, "¼": 105, "¾": 106, "Â": 107, "Ã": 108, "Ä": 109, "Å": 110, "â": 111, "Ċ": 112, "č": 113, "Ġ": 114, "Ģ": 115, "ģ": 116, "Ĩ": 117, "ĭ": 118, "į": 119, "ĵ": 120, "ķ": 121, "Ļ": 122, "ľ": 123, "Ŀ": 124, "ł": 125, "Ġt": 126, "he": 127, "Ġa": 128, "čĊ": 129, "in": 130, "Ġs": 131, "re": 132, "Ġthe": 133, "Ġo": 134, "Ġw": 135, "ou": 136, "er": 137, "Ġm": 138, "nd": 139, "is": 140, "ha": 141, "Ġb": 142, "on": 143, "or": 144, "en": 145, "Ġ_": 146, "Ġc": 147, "it": 148, "Ġf": 149, "es": 150, "Ġp": 151, "Ġof": 152, "ll": 153, "ed": 154, "Ġn": 155, "ar": 156, "Ġd": 157, "ing": 158, "at": 159, "Ġin": 160, "ve": 161, "ĠI": 162, "Ġto": 163, "om": 164, "Ġand": 165, "le": 166, "us": 167, "an": 168, "ĠT": 169, "ot": 170, "Ġth": 171, "ct": 172, "hat": 173, "Ġbe": 174, "Ġy": 175, "Ġl": 176, "Ġis": 177, "ic": 178, "as": 179, "Ġh": 180, "Ġyou": 181, "ow": 182, "Ġe": 183, "ent": 184, "ion": 185, "Ġg": 186, "ĠA": 187, "Ġha": 188, "ay": 189, "Ġhe": 190, "ce": 191, "se": 192, "ver": 193, "ut": 194, "Ġfor": 195, "al": 196, "st": 197, "ld": 198, "_,": 199, "im": 200, "ĠW": 201, "ive": 202, "Ġas": 203, "ect": 204, "ith": 205, "Ġnot": 206, "ur": 207, "Ġwe": 208, "ir": 209, "ĠThe": 210, "Ġthat": 211, "Ġre": 212, "Ġus": 213, "ord": 214, "Ġme": 215, "Ġit": 216, "gh": 217, "ly": 218, "od": 219, "ĠS": 220, "her": 221, "Ġwith": 222, "Ġor": 223, "et": 224, "Ġst": 225, "am": 226, "id": 227, "if": 228, "ill": 229, "Ġmy": 230, "ject": 231, "Ġare": 232, "ad": 233, "ke": 234, "ch": 235, "Ġwh": 236, "Ġsu": 237, "Ġcom": 238, "Ġan": 239, "Ġpr": 240, "ĠH": 241, "Ġhave": 242, "la": 243, "_.": 244, "ter": 245, "ould": 246, "Ġon": 247, "un": 248, "ĠC": 249, "oun": 250, "Ġcon": 251, "'s": 252, "ich": 253, "ght": 254, "verb": 255, "Ġad": 256, "ĠB": 257, "Ġse": 258, "res": 259, "ess": 260, "ĠM": 261, "Ġex": 262, "ple": 263, "ra": 264, "ri": 265, "Ġde": 266, "ĠP": 267, "ore": 268, "ĠO": 269, "Ġthis": 270, "ate": 271, "pe": 272, "Ġby": 273, "--": 274, "ul": 275, "Ġyour": 276, "Ġword": 277, "os": 278, "Ġk": 279, "ĠAnd": 280, "ge": 281, "Ġthou": 282, "Ġsh": 283, "Ġ1": 284, "Ġhis": 285, "est": 286, "EN": 287, "art": 288, "bject": 289, "all": 290, "qu": 291, "Ġwhich": 292, "ĠF": 293, "iv": 294, "Ġso": 295, "Ġ(": 296, "Ġ+": 297, "ome": 298, "Ġwill": 299, "IN": 300, "ĠN": 301, "ers": 302, ".+": 303, "ain": 304, "Ġbut": 305, "Ġdo": 306, "il": 307, "ĠE": 308, "Ġsent": 309, "ence": 310, "Ġhim": 311, "ro": 312, "Ġgo": 313, "Ġle": 314, "ru": 315, "ĠY": 316, "'d": 317, "Ġne": 318, "our": 319, "ation": 320, "th": 321, "IO": 322, "Ġverb": 323, "Ġused": 324, "han": 325, "hen": 326, "ak": 327, "ĠG": 328, "ĠL": 329, "AR": 330, "âĢ": 331, "ĠTh": 332, "ant": 333, "rom": 334, "Ġsha": 335, "Ġwas": 336, "Ġu": 337, "Ġv": 338, "ake": 339, "red": 340, "Ġmay": 341, "Ġno": 342, "Ġall": 343, "ight": 344, "ck": 345, "and": 346, "ust": 347, "ble": 348, "ress": 349, "ĠR": 350, "Ġlo": 351, "ast": 352, "Ġour": 353, "ol": 354, "Ġwords": 355, "ER": 356, "ction": 357, "ound": 358, "Ġman": 359, "Ġform": 360, "use": 361, "ong": 362, "ĠD": 363, "em": 364, "ard": 365, "Ġuse": 366, "ie": 367, "Ġat": 368, "ame": 369, "Ġfrom": 370, "ĠHe": 371, "ind": 372, "Ġnoun": 373, "ES": 374, "ous": 375, "ond": 376, "ell": 377, "Ġshould": 378, "to": 379, "ition": 380, "Ġqu": 381, "Ġspe": 382, "Ġal": 383, "ative": 384, "Ġcla": 385, "Ġone": 386, "ok": 387, "ine": 388, "Ġsentence": 389, "The": 390, "US": 391, "Ġthey": 392, "Ġexp": 393, "Ġkn": 394, "Ġthy": 395, "ist": 396, "Ġshall": 397, "ost": 398, "ose": 399, "Ġ2": 400, "pp": 401, "Ġpart": 402, "Ġher": 403, "ĠTo": 404, "sel": 405, "ther": 406, "Ġcan": 407, "Ġup": 408, "Ġr": 409, "Ġmore": 410, "Ġmean": 411, "one": 412, "um": 413, "Ġun": 414, "ish": 415, "Ġwhat": 416, "we": 417, "Ġadject": 418, "ives": 419, "ĠWh": 420, "Ġ'": 421, "Ġfa": 422, "ĠFor": 423, "ig": 424, "ase": 425, "ire": 426, "ry": 427, "te": 428, "Ġfo": 429, "row": 430, "ure": 431, "Ġsay": 432, "ci": 433, "ING": 434, "Ġli": 435, "ĠIn": 436, "OR": 437, "ĠWe": 438, "Ġwor": 439, "Ġwould": 440, "very": 441, "ces": 442, "Ġobject": 443, "Ġthese": 444, "Ġif": 445, "ity": 446, "Ġtheir": 447, "Ġthem": 448, "ment": 449, "ren": 450, "ort": 451, "oth": 452, "Ġsubject": 453, "oss": 454, "Ġam": 455, "ass": 456, "Ġgood": 457, "onoun": 458, "here": 459, "Ġsee": 460, "pt": 461, "ĠV": 462, "Ġexpress": 463, "Ġthere": 464, "Ġthee": 465, "Ġpre": 466, "per": 467, "Ġmod": 468, "ime": 469, "ĠBut": 470, "other": 471, "irst": 472, "Ġpro": 473, "Ġab": 474, "ies": 475, "Ġthan": 476, "UC": 477, "are": 478, "ary": 479, "reat": 480, "ear": 481, "fore": 482, "Ġar": 483, "Ġlet": 484, "Ġwhen": 485, "ĠYou": 486, "Ġsa": 487, "ĠThat": 488, "Ġknow": 489, "el": 490, "AN": 491, "age": 492, "ice": 493, "Ġcall": 494, "lo": 495, "Ġtw": 496, "Ġpronoun": 497, "Ġadverb": 498, "end": 499, "IC": 500, "Ġhad": 501, "hr": 502, "out": 503, "self": 504, "ng": 505, "ud": 506, "ber": 507, "ide": 508, "Ġcomp": 509, "Ġother": 510, "ET": 511, "Ġwere": 512, "erson": 513, "ced": 514, "Ġmodif": 515, "Ġsome": 516, "Ġind": 517, "Ġbeen": 518, "ven": 519, "ON": 520, "Ġj": 521, "ĠWhat": 522, "Ġ\"": 523, "Ġshe": 524, "ĠIt": 525, "fin": 526, "Ġsp": 527, "Ġbo": 528, "ree": 529, "itt": 530, "Ġbr": 531, "osition": 532, "Ġwr": 533, "ink": 534, "Ġexam": 535, "llow": 536, "icate": 537, "Ġnow": 538, "Ġclause": 539, "Ġ3": 540, "Ġtime": 541, "Ġcomm": 542, "Ġtwo": 543, "les": 544, "ings": 545, "ather": 546, "Ġlord": 547, "Ġcl": 548, "Ġlike": 549, "ag": 550, "'ll": 551, "ep": 552, "ade": 553, "Ġmake": 554, "ff": 555, "Ġmust": 556, "ath": 557, "ences": 558, "Ġperson": 559, "Ġfollow": 560, "Ġ[": 561, "ither": 562, "Ġhas": 563, "Ġpl": 564, "Ġcome": 565, "KING": 566, "cc": 567, "Ġhere": 568, "Ġsub": 569, "Ġsuch": 570, "Ġthen": 571, "ife": 572, "ec": 573, "Ġag": 574, "ful": 575, "ĠIf": 576, "Ġdes": 577, "Ġcomple": 578, "Ġhat": 579, "ang": 580, "Ġen": 581, "wh": 582, "Ġpla": 583, "Ġphr": 584, "ĠMy": 585, "ach": 586, "so": 587, "Ġdis": 588, "ici": 589, "ally": 590, "Ġhow": 591, "ions": 592, "the": 593, "way": 594, "redicate": 595, "ĠAs": 596, "fe": 597, "ied": 598, "Ġim": 599, "Ġsir": 600, ").": 601, "Ġch": 602, "Ġwell": 603, "Ġadjective": 604, "able": 605, "TIO": 606, "man": 607, "Ġgr": 608, "Ġsentences": 609, "Ġexample": 610, "LO": 611, "uch": 612, "Ġout": 613, "Ġco": 614, "Ġspeak": 615, "ite": 616, "ular": 617, "uses": 618, "ves": 619, "ough": 620, "ign": 621, ",--": 622, "ave": 623, "resent": 624, "Ġwho": 625, "âĢľ": 626, "âĢĿ": 627, "tain": 628, "ĠThis": 629, "itive": 630, "Ġupon": 631, "Ġany": 632, "Ġpo": 633, "LI": 634, "ARD": 635, "LA": 636, "ue": 637, "Ġits": 638, "ise": 639, "jun": 640, "ance": 641, "OM": 642, "Ġnouns": 643, "be": 644, ".--": 645, "IUS": 646, "Ġper": 647, "Ġlove": 648, "Ġcalled": 649, "ick": 650, "ten": 651, "wn": 652, "Ġking": 653, "ap": 654, "ĠJ": 655, "ood": 656, "Ġdid": 657, "Ġfirst": 658, "Ġsim": 659, "own": 660, "Ġtr": 661, "Ġbet": 662, "Ġmar": 663, "iz": 664, "Ġmade": 665, "Ġpredicate": 666, "nder": 667, "har": 668, "Ġmost": 669, "not": 670, "Ġverbs": 671, "ab": 672, "ĠâĢľ": 673, "ĠU": 674, "Ġcons": 675, "irect": 676, "Ġclauses": 677, "LE": 678, "ĠSo": 679, "position": 680, "ial": 681, "ild": 682, "ward": 683, "omet": 684, "ĠEng": 685, "Ġho": 686, "Ġway": 687, "ural": 688, "ause": 689, "ĠThey": 690, "ĠOF": 691, "for": 692, "tc": 693, "Ġfri": 694, "ince": 695, "KE": 696, "Ġbeg": 697, "Ġadjectives": 698, "Ġadd": 699, "Ġday": 700, "less": 701, "ness": 702, "int": 703, "Ġgreat": 704, "Ġfe": 705, "Ġrel": 706, "Ġmeaning": 707, "Ġthought": 708, "fter": 709, "Ġpe": 710, ".;": 711, "Ġend": 712, "TI": 713, "Ġoff": 714, "Ġgra": 715, "ved": 716, "Ġhath": 717, "ech": 718, "hing": 719, "ense": 720, "Ġhand": 721, "Ġvery": 722, "Ġalso": 723, "OL": 724, "Ġonly": 725, "EL": 726, "Ġdif": 727, "Ġtoo": 728, "Ġboth": 729, "Ġmen": 730, "cl": 731, "Ġnever": 732, "Ġetc": 733, "orn": 734, "lish": 735, "Ġthink": 736, "Ġagain": 737, "ory": 738, "Ġfather": 739, "Ġ4": 740, "hed": 741, "Ġposs": 742, "Ġbefore": 743, "Ġtake": 744, "Ġchan": 745, "Ġname": 746, "Ġsame": 747, "com": 748, "Ġtell": 749, "imes": 750, "Ġwork": 751, "._": 752, "day": 753, "Â§": 754, "ever": 755, "ĠThere": 756, "ĠCom": 757, "ving": 758, "ctions": 759, "Ġquest": 760, "Ġmeans": 761, "Ġro": 762, "'t": 763, "..": 764, "that": 765, "Ġsomet": 766, "Ġlife": 767, "ases": 768, "TER": 769, "ull": 770, "inate": 771, "Ġsing": 772, "Ġwhere": 773, "Ġart": 774, "Ġmuch": 775, "ile": 776, "feren": 777, "sh": 778, "Ġyet": 779, "Ġgive": 780, "In": 781, "Ġtru": 782, "Ġapp": 783, "Ġpresent": 784, "Ġrem": 785, "ĠWith": 786, "Ġstru": 787, "Ġfriend": 788, "Ġdeath": 789, "entle": 790, "TH": 791, "Ġacc": 792, "Ġimp": 793, "Ġlook": 794, "ĠDo": 795, "Ġser": 796, "umber": 797, "ĠAn": 798, "Ġstud": 799, "ĠWhen": 800, "ĠEnglish": 801, "urn": 802, "Ġoften": 803, "Ġletter": 804, "Ġplace": 805, "ack": 806, "Ġphrase": 807, "Ġpast": 808, "Ġheart": 809, "âĢĻ": 810, "CA": 811, "Ġswe": 812, "Ġown": 813, "ult": 814, "Ġforms": 815, "stru": 816, "Ġconjun": 817, "io": 818, "Ġpronouns": 819, "ph": 820, "ĠK": 821, "Ġbeing": 822, "ady": 823, "Ġcommon": 824, "Ġcont": 825, "Ġmany": 826, "Ġpreposition": 827, "angu": 828, "ps": 829, "Ġrep": 830, "ks": 831, "Ġfind": 832, "aster": 833, "ower": 834, ".,": 835, "au": 836, "ix": 837, "rown": 838, "Ġafter": 839, "Ġstand": 840, "Ġra": 841, "ote": 842, "iss": 843, ".]": 844, "ĠHow": 845, "Ġpartici": 846, "Ġhon": 847, "ICH": 848, "Ġhear": 849, "IS": 850, "Ġinto": 851, "Ġnew": 852, "Ġsimple": 853, "ier": 854, "Ġff": 855, "ans": 856, "INC": 857, "Ġseen": 858, "Ġfollowing": 859, "Th": 860, "ious": 861, "Ġlangu": 862, "Ġevery": 863, "ĠNo": 864, "+,": 865, "DU": 866, "II": 867, "hes": 868, "akes": 869, "DUKE": 870, "Ġcannot": 871, "Ġson": 872, "ens": 873, "Ġbrother": 874, "ee": 875, "Ġmine": 876, "Ġbec": 877, "Ġlong": 878, "ĠThou": 879, "Ġunder": 880, "_;": 881, "of": 882, "ty": 883, "Ġold": 884, "Ġclass": 885, "AS": 886, "li": 887, "Ġthing": 888, "Ġsec": 889, "ĠWhich": 890, "ars": 891, "ated": 892, "ICHARD": 893, "Ġpossess": 894, "ENTIO": 895, "lood": 896, "ĠWhy": 897, "Ġstate": 898, "ird": 899, "Ġshow": 900, "Ġ(_": 901, "Ġabout": 902, "EC": 903, "igh": 904, "Ġey": 905, "finitive": 906, "Ġless": 907, "pend": 908, "AU": 909, "_)": 910, "ac": 911, "Ġhea": 912, "nect": 913, "ĠBy": 914, "Ġmight": 915, "ĠGod": 916, "Ġspeech": 917, "Ġsaid": 918, "ical": 919, "Ġlanguage": 920, "ouse": 921, "Ġconf": 922, "Ġpass": 923, "Ġord": 924, "Ġjo": 925, "Ġbook": 926, "Ġdifferen": 927, "Ġ6": 928, "ordinate": 929, "OT": 930, "ĠYour": 931, "AB": 932, "Ġbel": 933, "Ġ5": 934, "Ġri": 935, "Ġsound": 936, "hall": 937, "Ġfl": 938, "ples": 939, "Ġthings": 940, "Ġstruck": 941, "Ġaction": 942, "Ġblood": 943, "Ġconnect": 944, "ning": 945, "Ġbl": 946, "Ġkind": 947, "ĠIs": 948, "ĠOf": 949, "Ġplural": 950, "Ġsw": 951, "Ġem": 952, ".\"": 953, "Ġnor": 954, "Ġthose": 955, "Ġadverbs": 956, "fect": 957, "Ġcase": 958, "ĠBe": 959, "ms": 960, "oul": 961, "ors": 962, "Ġple": 963, "alk": 964, "cri": 965, "Ġstr": 966, "First": 967, "Ġsy": 968, "Ġcor": 969, "UE": 970, "VE": 971, "Ġke": 972, "ittle": 973, "Ġtrue": 974, "Ġ{": 975, "Ġwar": 976, "Ġcoun": 977, "Ġeach": 978, "ener": 979, "Ġnumber": 980, "Ġint": 981, "ctive": 982, "ys": 983, "Ġcould": 984, "lp": 985, "ought": 986, "ison": 987, "ute": 988, "atter": 989, "ove": 990, "ways": 991, "UM": 992, "aw": 993, "ace": 994, "uth": 995, "stant": 996, "ĠRICHARD": 997, "Ġgentle": 998, "ĠWhere": 999, "Ġworld": 1000, "Ġcompound": 1001, "Ġsc": 1002, "orrow": 1003, "Ġthus": 1004, "ĠCome": 1005, "UCH": 1006, "Sec": 1007, "ily": 1008, "iers": 1009, "ons": 1010, "Ġdist": 1011, "Ġres": 1012, "Ġbegin": 1013, "Ġrest": 1014, "ef": 1015, "omin": 1016, "GLO": 1017, "He": 1018, "RE": 1019, "RY": 1020, "Ġhead": 1021, "urp": 1022, "Ġwithout": 1023}, "merges": ["Ġ t", "h e", "Ġ a", "č Ċ", "i n", "Ġ s", "r e", "Ġt he", "Ġ o", "Ġ w", "o u", "e r", "Ġ m", "n d", "i s", "h a", "Ġ b", "o n", "o r", "e n", "Ġ _", "Ġ c", "i t", "Ġ f", "e s", "Ġ p", "Ġo f", "l l", "e d", "Ġ n", "a r", "Ġ d", "in g", "a t", "Ġ in", "v e", "Ġ I", "Ġt o", "o m", "Ġa nd", "l e", "u s", "a n", "Ġ T", "o t", "Ġt h", "c t", "ha t", "Ġb e", "Ġ y", "Ġ l", "Ġ is", "i c", "a s", "Ġ h", "Ġy ou", "o w", "Ġ e", "en t", "i on", "Ġ g", "Ġ A", "Ġ ha", "a y", "Ġ he", "c e", "s e", "v er", "u t", "Ġf or", "a l", "s t", "l d", "_ ,", "i m", "Ġ W", "i ve", "Ġa s", "e ct", "it h", "Ġn ot", "u r", "Ġw e", "i r", "ĠT he", "Ġt hat", "Ġ re", "Ġ us", "or d", "Ġm e", "Ġ it", "g h", "l y", "o d", "Ġ S", "he r", "Ġw ith", "Ġo r", "e t", "Ġs t", "a m", "i d", "i f", "i ll", "Ġm y", "j ect", "Ġa re", "a d", "k e", "c h", "Ġw h", "Ġs u", "Ġc om", "Ġa n", "Ġp r", "Ġ H", "Ġha ve", "l a", "_ .", "t er", "ou ld", "Ġo n", "u n", "Ġ C", "ou n", "Ġc on", "' s", "ic h", "gh t", "ver b", "Ġa d", "Ġ B", "Ġs e", "re s", "es s", "Ġ M", "Ġe x", "p le", "r a", "r i", "Ġd e", "Ġ P", "o re", "Ġ O", "Ġth is", "at e", "p e", "Ġb y", "- -", "u l", "Ġyou r", "Ġw ord", "o s", "Ġ k", "ĠA nd", "g e", "Ġth ou", "Ġs h", "Ġ 1", "Ġh is", "es t", "E N", "ar t", "b ject", "a ll", "q u", "Ġwh ich", "Ġ F", "i v", "Ġs o", "Ġ (", "Ġ +", "om e", "Ġw ill", "I N", "Ġ N", "er s", ". +", "a in", "Ġb ut", "Ġd o", "i l", "Ġ E", "Ġs ent", "en ce", "Ġh im", "r o", "Ġg o", "Ġ le", "r u", "Ġ Y", "' d", "Ġn e", "ou r", "at ion", "t h", "I O", "Ġ verb", "Ġus ed", "ha n", "he n", "a k", "Ġ G", "Ġ L", "A R", "â Ģ", "ĠT h", "an t", "r om", "Ġs ha", "Ġw as", "Ġ u", "Ġ v", "a ke", "re d", "Ġm ay", "Ġn o", "Ġa ll", "i ght", "c k", "a nd", "us t", "b le", "res s", "Ġ R", "Ġl o", "as t", "Ġo ur", "o l", "Ġword s", "E R", "ct ion", "ou nd", "Ġm an", "Ġfor m", "us e", "on g", "Ġ D", "e m", "ar d", "Ġus e", "i e", "Ġa t", "am e", "Ġf rom", "ĠH e", "in d", "Ġn oun", "E S", "ou s", "o nd", "e ll", "Ġsh ould", "t o", "it ion", "Ġ qu", "Ġs pe", "Ġa l", "at ive", "Ġc la", "Ġon e", "o k", "in e", "Ġsent ence", "T he", "U S", "Ġthe y", "Ġex p", "Ġk n", "Ġth y", "is t", "Ġsha ll", "o st", "o se", "Ġ 2", "p p", "Ġp art", "Ġhe r", "ĠT o", "se l", "t her", "Ġc an", "Ġu p", "Ġ r", "Ġm ore", "Ġme an", "on e", "u m", "Ġ un", "is h", "Ġw hat", "w e", "Ġad ject", "iv es", "ĠW h", "Ġ '", "Ġf a", "ĠF or", "i g", "as e", "i re", "r y", "t e", "Ġf o", "r ow", "u re", "Ġs ay", "c i", "IN G", "Ġl i", "ĠI n", "O R", "ĠW e", "Ġw or", "Ġw ould", "ver y", "c es", "Ġo bject", "Ġthe se", "Ġ if", "it y", "Ġthe ir", "Ġthe m", "m ent", "re n", "or t", "ot h", "Ġsu bject", "os s", "Ġa m", "as s", "Ġgo od", "on oun", "he re", "Ġse e", "p t", "Ġ V", "Ġexp ress", "Ġthe re", "Ġthe e", "Ġp re", "p er", "Ġm od", "im e", "ĠB ut", "ot her", "ir st", "Ġpr o", "Ġa b", "i es", "Ġt han", "U C", "a re", "ar y", "re at", "e ar", "f ore", "Ġa r", "Ġle t", "Ġw hen", "ĠY ou", "Ġs a", "ĠT hat", "Ġkn ow", "e l", "A N", "a ge", "ic e", "Ġc all", "l o", "Ġt w", "Ġpr onoun", "Ġad verb", "e nd", "I C", "Ġha d", "h r", "ou t", "sel f", "n g", "u d", "b er", "id e", "Ġcom p", "Ġo ther", "E T", "Ġwe re", "ers on", "c ed", "Ġmod if", "Ġs ome", "Ġin d", "Ġbe en", "v en", "O N", "Ġ j", "ĠW hat", "Ġ \"", "Ġs he", "ĠI t", "f in", "Ġs p", "Ġb o", "re e", "it t", "Ġb r", "os ition", "Ġw r", "in k", "Ġex am", "ll ow", "ic ate", "Ġn ow", "Ġcla use", "Ġ 3", "Ġt ime", "Ġcom m", "Ġtw o", "l es", "ing s", "at her", "Ġl ord", "Ġc l", "Ġli ke", "a g", "' ll", "e p", "ad e", "Ġm ake", "f f", "Ġm ust", "at h", "en ces", "Ġp erson", "Ġfo llow", "Ġ [", "it her", "Ġha s", "Ġp l", "Ġcom e", "K ING", "c c", "Ġhe re", "Ġsu b", "Ġsu ch", "Ġthe n", "if e", "e c", "Ġa g", "f ul", "ĠI f", "Ġd es", "Ġcom ple", "Ġ hat", "an g", "Ġ en", "w h", "Ġp la", "Ġp hr", "ĠM y", "a ch", "s o", "Ġd is", "ic i", "all y", "Ġh ow", "ion s", "t he", "w ay", "red icate", "ĠA s", "f e", "i ed", "Ġ im", "Ġs ir", ") .", "Ġc h", "Ġwe ll", "Ġadject ive", "a ble", "T IO", "m an", "Ġg r", "Ġsent ences", "Ġexam ple", "L O", "u ch", "Ġo ut", "Ġc o", "Ġspe ak", "it e", "ul ar", "us es", "v es", "ou gh", "ig n", ", --", "a ve", "res ent", "Ġwh o", "âĢ ľ", "âĢ Ŀ", "t ain", "ĠTh is", "it ive", "Ġup on", "Ġan y", "Ġp o", "L I", "AR D", "L A", "u e", "Ġit s", "is e", "j un", "an ce", "O M", "Ġnoun s", "b e", ". --", "I US", "Ġp er", "Ġlo ve", "Ġcall ed", "ic k", "t en", "w n", "Ġk ing", "a p", "Ġ J", "o od", "Ġd id", "Ġf irst", "Ġs im", "ow n", "Ġt r", "Ġbe t", "Ġm ar", "i z", "Ġm ade", "Ġp redicate", "nd er", "ha r", "Ġm ost", "n ot", "Ġverb s", "a b", "Ġ âĢľ", "Ġ U", "Ġcon s", "ire ct", "Ġcla uses", "L E", "ĠS o", "p osition", "i al", "i ld", "w ard", "om et", "ĠE ng", "Ġh o", "Ġw ay", "ur al", "a use", "ĠThe y", "ĠO F", "f or", "t c", "Ġf ri", "in ce", "K E", "Ġbe g", "Ġadject ives", "Ġad d", "Ġd ay", "l ess", "n ess", "in t", "Ġg reat", "Ġf e", "Ġre l", "Ġmean ing", "Ġthou ght", "f ter", "Ġp e", ". ;", "Ġe nd", "T I", "Ġof f", "Ġg ra", "v ed", "Ġhat h", "e ch", "h ing", "en se", "Ġha nd", "Ġ very", "Ġal so", "O L", "Ġon ly", "E L", "Ġd if", "Ġto o", "Ġb oth", "Ġm en", "c l", "Ġne ver", "Ġe tc", "or n", "l ish", "Ġth ink", "Ġag ain", "or y", "Ġf ather", "Ġ 4", "he d", "Ġp oss", "Ġbe fore", "Ġt ake", "Ġc han", "Ġn ame", "Ġs ame", "c om", "Ġt ell", "im es", "Ġwor k", ". _", "d ay", "Â §", "e ver", "ĠThe re", "ĠC om", "v ing", "ction s", "Ġqu est", "Ġmean s", "Ġ ro", "' t", ". .", "t hat", "Ġs omet", "Ġl ife", "as es", "T ER", "u ll", "in ate", "Ġs ing", "Ġw here", "Ġar t", "Ġm uch", "i le", "fe ren", "s h", "Ġy et", "Ġg ive", "I n", "Ġt ru", "Ġa pp", "Ġp resent", "Ġre m", "ĠW ith", "Ġst ru", "Ġfri end", "Ġde ath", "ent le", "T H", "Ġa cc", "Ġim p", "Ġlo ok", "ĠD o", "Ġs er", "um ber", "ĠA n", "Ġst ud", "ĠW hen", "ĠEng lish", "ur n", "Ġof ten", "Ġlet ter", "Ġpla ce", "a ck", "Ġphr ase", "Ġp ast", "Ġhe art", "âĢ Ļ", "C A", "Ġs we", "Ġo wn", "ul t", "Ġform s", "st ru", "Ġcon jun", "i o", "Ġpronoun s", "p h", "Ġ K", "Ġbe ing", "ad y", "Ġcomm on", "Ġcon t", "Ġman y", "Ġpre position", "ang u", "p s", "Ġre p", "k s", "Ġf ind", "as ter", "ow er", ". ,", "a u", "i x", "row n", "Ġa fter", "Ġst and", "Ġ ra", "ot e", "is s", ". ]", "ĠH ow", "Ġpart ici", "Ġh on", "IC H", "Ġhe ar", "I S", "Ġin to", "Ġne w", "Ġsim ple", "i er", "Ġf f", "an s", "IN C", "Ġse en", "Ġfollow ing", "T h", "i ous", "Ġl angu", "Ġe very", "ĠN o", "+ ,", "D U", "I I", "he s", "ak es", "DU KE", "Ġcan not", "Ġs on", "en s", "Ġbr other", "e e", "Ġm ine", "Ġbe c", "Ġl ong", "ĠTh ou", "Ġu nder", "_ ;", "o f", "t y", "Ġo ld", "Ġcl ass", "A S", "l i", "Ġth ing", "Ġse c", "ĠWh ich", "ar s", "at ed", "ICH ARD", "Ġposs ess", "EN TIO", "lo od", "ĠWh y", "Ġst ate", "ir d", "Ġsh ow", "Ġ( _", "Ġab out", "E C", "i gh", "Ġe y", "fin itive", "Ġl ess", "pe nd", "A U", "_ )", "a c", "Ġhe a", "n ect", "ĠB y", "Ġm ight", "ĠG od", "Ġspe ech", "Ġsa id", "ic al", "Ġlangu age", "ou se", "Ġcon f", "Ġp ass", "Ġor d", "Ġj o", "Ġbo ok", "Ġdif feren", "Ġ 6", "ord inate", "O T", "ĠY our", "A B", "Ġbe l", "Ġ 5", "Ġ ri", "Ġs ound", "ha ll", "Ġf l", "p les", "Ġth ings", "Ġstru ck", "Ġa ction", "Ġb lood", "Ġcon nect", "n ing", "Ġb l", "Ġk ind", "ĠI s", "ĠO f", "Ġpl ural", "Ġs w", "Ġe m", ". \"", "Ġn or", "Ġth ose", "Ġadverb s", "f ect", "Ġc ase", "ĠB e", "m s", "ou l", "or s", "Ġp le", "al k", "c ri", "Ġst r", "F irst", "Ġs y", "Ġc or", "U E", "V E", "Ġ ke", "itt le", "Ġtru e", "Ġ {", "Ġw ar", "Ġc oun", "Ġe ach", "en er", "Ġn umber", "Ġin t", "ct ive", "y s", "Ġc ould", "l p", "ou ght", "is on", "ut e", "at ter", "o ve", "way s", "U M", "a w", "a ce", "ut h", "st ant", "ĠR ICHARD", "Ġg entle", "ĠW here", "Ġwor ld", "Ġcomp ound", "Ġs c", "or row", "Ġth us", "ĠC ome", "UC H", "S ec", "i ly", "i ers", "on s", "Ġd ist", "Ġre s", "Ġbeg in", "Ġre st", "e f", "om in", "G LO", "H e", "R E", "R Y", "Ġhe ad", "ur p", "Ġwith out"]}}