{"version": "1.0", "truncation": null, "padding": null, "added_tokens": [{"id": 0, "content": "<|endoftext|>", "single_word": false, "lstrip": false, "rstrip": false, "normalized": false, "special": true}], "normalizer": null, "pre_tokenizer": {"type": "ByteLevel", "add_prefix_space": false, "trim_offsets": true, "use_regex": true}, "post_processor": null, "decoder": null, "model": {"type": "BPE", "dropout": null, "unk_token": null, "continuing_subword_prefix": null, "end_of_word_suffix": null, "fuse_unk": false, "byte_fallback": false, "ignore_merges": false, "vocab": {"<|endoftext|>": 0, "!": 1, "\"": 2, "#": 3, "$": 4, "%": 5, "&": 6, "'": 7, "(": 8, ")": 9, "*": 10, "+": 11, ",": 12, "-": 13, ".": 14, "/": 15, "0": 16, "1": 17, "2": 18, "3": 19, "4": 20, "5": 21, "6": 22, "7": 23, "8": 24, "9": 25, ":": 26, ";": 27, "=": 28, ">": 29, "?": 30, "@": 31, "A": 32, "B": 33, "C": 34, "D": 35, "E": 36, "F": 37, "G": 38, "H": 39, "I": 40, "J": 41, "K": 42, "L": 43, "M": 44, "N": 45, "O": 46, "P": 47, "Q": 48, "R": 49, "S": 50, "T": 51, "U": 52, "V": 53, "W": 54, "X": 55, "Y": 56, "Z": 57, "[": 58, "]": 59, "^": 60, "_": 61, "`": 62, "a": 63, "b": 64, "c": 65, "d": 66, "e": 67, "f": 68, "g": 69, "h": 70, "i": 71, "j": 72, "k": 73, "l": 74, "m": 75, "n": 76, "o": 77, "p": 78, "q": 79, "r": 80, "s": 81, "t": 82, "u": 83, "v": 84, "w": 85, "x": 86, "y": 87, "z": 88, "{": 89, "|": 90, "}": 91, "~": 92, "¡": 93, "¢": 94, "£": 95, "¤": 96, "¦": 97, "§": 98, "¨": 99, "©": 100, "ª": 101, "«": 102, "®": 103, "¯": 104, "°": 105, "±": 106, "²": 107, "³": 108, "´": 109, "µ": 110, "¶": 111, "·": 112, "¸": 113, "¹": 114, "º": 115, "»": 116, "¼": 117, "½": 118, "¾": 119, "¿": 120, "Â": 121, "Ã": 122, "Ä": 123, "Å": 124, "Î": 125, "Ï": 126, "á": 127, "â": 128, "ĉ": 129, "Ċ": 130, "č": 131, "Ġ": 132, "Ģ": 133, "ģ": 134, "Ĥ": 135, "ĥ": 136, "Ħ": 137, "ħ": 138, "Ĩ": 139, "ĩ": 140, "Ī": 141, "ī": 142, "Ĭ": 143, "ĭ": 144, "į": 145, "İ": 146, "ı": 147, "Ĵ": 148, "ĵ": 149, "Ķ": 150, "ķ": 151, "ĸ": 152, "ĺ": 153, "Ļ": 154, "ľ": 155, "Ŀ": 156, "ŀ": 157, "ł": 158, "Ġt": 159, "he": 160, "Ġa": 161, "Ġthe": 162, "in": 163, "Ġo": 164, "re": 165, "Ġs": 166, "Ġw": 167, "er": 168, "nd": 169, "on": 170, "at": 171, "it": 172, "Ġb": 173, "is": 174, "ou": 175, "Ġc": 176, "en": 177, "Ġof": 178, "Ġm": 179, "es": 180, "čĊ": 181, "Ġp": 182, "Ġf": 183, "or": 184, "Ġand": 185, "Ġh": 186, "Ġd": 187, "Ġin": 188, "Ġto": 189, "ed": 190, "an": 191, "Ġth": 192, "ar": 193, "ll": 194, "Ġl": 195, "Ġn": 196, "ing": 197, "ic": 198, "ion": 199, "Ġbe": 200, "om": 201, "as": 202, "Ġe": 203, "le": 204, "ve": 205, "ent": 206, "ot": 207, "se": 208, "ĠI": 209, "ut": 210, "st": 211, "Ġg": 212, "al": 213, "ct": 214, "Ġy": 215, "Ġwh": 216, "Ġis": 217, "ce": 218, "Ġre": 219, "ver": 220, "ow": 221, "Ġthat": 222, "im": 223, "Ġit": 224, "Ġu": 225, "ly": 226, "Ġyou": 227, "ĠT": 228, "Ġha": 229, "Ġhe": 230, "ir": 231, "Ġfor": 232, "et": 233, "ld": 234, "Ġas": 235, "ur": 236, "ay": 237, "Ġ_": 238, "Ġon": 239, "id": 240, "ro": 241, "ith": 242, "gh": 243, "her": 244, "Ġnot": 245, "ill": 246, "ich": 247, "Ġan": 248, "qu": 249, "âĢ": 250, "Ġwith": 251, "Ġcon": 252, "Ġwe": 253, "Ġor": 254, "ĠA": 255, "if": 256, "Ġde": 257, "Ġwhich": 258, "ch": 259, "am": 260, "Ġsu": 261, "ation": 262, "Ġby": 263, "Ġst": 264, "ĠS": 265, "Ġare": 266, "ter": 267, "Ġse": 268, "Ġhave": 269, "pe": 270, "ad": 271, "ĠThe": 272, "Ġex": 273, "ri": 274, "ess": 275, "all": 276, "od": 277, "ain": 278, "ould": 279, "il": 280, "Ġcom": 281, "Ġsh": 282, "ore": 283, "ul": 284, "res": 285, "Ġme": 286, "ght": 287, "est": 288, "Ġat": 289, "Ġso": 290, "ate": 291, "Ġhis": 292, "ke": 293, "ive": 294, "ect": 295, "ra": 296, "Ġbut": 297, "Ġwill": 298, "ant": 299, "Ġv": 300, "us": 301, "Ġne": 302, "ĠW": 303, "ers": 304, "ge": 305, "Ġwas": 306, "Ġall": 307, "rom": 308, "Ġthis": 309, "Ġthey": 310, "ĠC": 311, "ab": 312, "Ġpro": 313, "ies": 314, "Ġk": 315, "art": 316, "la": 317, "Ġgo": 318, "iv": 319, "Ġman": 320, "ous": 321, "ĠM": 322, "Ġtheir": 323, "ment": 324, "os": 325, "ity": 326, "ĠH": 327, "ust": 328, "Ã©": 329, "Ġfrom": 330, "nt": 331, "ĠB": 332, "ol": 333, "Ġqu": 334, "our": 335, "ist": 336, "very": 337, "pp": 338, "Ġle": 339, "Ġwhe": 340, "Ġla": 341, "ig": 342, "ther": 343, "Ġthem": 344, "th": 345, "Ġyour": 346, "ure": 347, "ome": 348, "te": 349, "Ġch": 350, "Ġmy": 351, "Ġdo": 352, "ord": 353, "ru": 354, "ame": 355, "Ġhim": 356, "Ġad": 357, "ose": 358, "um": 359, "ple": 360, "ie": 361, "ĠP": 362, "Ġup": 363, "red": 364, "Ġone": 365, "Ġun": 366, "ĠE": 367, "ĠF": 368, "âĢĻ": 369, "ard": 370, "ence": 371, "Ġj": 372, "Ġal": 373, "Ġno": 374, "Ġsa": 375, "ions": 376, "Ġcan": 377, "Ġmay": 378, "Ġ1": 379, "reat": 380, "ci": 381, "ost": 382, "Ġother": 383, "ject": 384, "sel": 385, "em": 386, "Ġthere": 387, "Ġwho": 388, "Ġma": 389, "_,": 390, "Ġwould": 391, "ast": 392, "ind": 393, "ong": 394, "Ġr": 395, "ight": 396, "ort": 397, "ĠâĢ": 398, "Ġus": 399, "un": 400, "per": 401, "Ġpr": 402, "Ġmore": 403, "and": 404, "ĠL": 405, "--": 406, "Ġim": 407, "ĠN": 408, "Ġpart": 409, "Ġen": 410, "ĠO": 411, "ans": 412, "ance": 413, "Ġhad": 414, "cc": 415, "ĠG": 416, "able": 417, "Ġab": 418, "ĠTh": 419, "pt": 420, "Ġfa": 421, "Ġhas": 422, "ff": 423, "Ġif": 424, "ire": 425, "out": 426, "ck": 427, "ary": 428, "Ġint": 429, "Ġthan": 430, "'s": 431, "Ġbeen": 432, "ound": 433, "Ġany": 434, "Ġthou": 435, "ond": 436, "Ġpe": 437, "Ġform": 438, "Ġob": 439, "Ġam": 440, "Ġspe": 441, "ak": 442, "Ġdis": 443, "Ġkn": 444, "Ġwere": 445, "itt": 446, "ert": 447, "ces": 448, "Ġwhen": 449, "Ġgreat": 450, "ud": 451, "Ġour": 452, "ĠR": 453, "Ġsome": 454, "Ġtim": 455, "ish": 456, "Ġ(": 457, "Ġcomm": 458, "ĠD": 459, "Ġfe": 460, "Ġupon": 461, "Ġar": 462, "ally": 463, "Ġvery": 464, "ĠSt": 465, "ine": 466, "Ġli": 467, "ry": 468, "Ġsub": 469, "Ġpre": 470, "Ġher": 471, "ok": 472, "au": 473, "ress": 474, "Ġshould": 475, "pl": 476, "one": 477, "Ġdes": 478, "ree": 479, "Ġper": 480, "ice": 481, "Ġwor": 482, "Ġits": 483, "ĠâĢĺ": 484, "self": 485, "Ġwhat": 486, "ass": 487, "ĠAnd": 488, "ven": 489, "Ġet": 490, "fore": 491, "are": 492, "Ġlo": 493, "Ġpl": 494, "Ġthese": 495, "ction": 496, "Ġind": 497, "Ġag": 498, "ount": 499, "own": 500, "we": 501, "Ġtime": 502, "Ġcont": 503, "Ġmust": 504, "Ġonly": 505, "ag": 506, "Ġinto": 507, "Ġshe": 508, "wn": 509, "Ġgood": 510, "fe": 511}, "merges": ["Ġ t", "h e", "Ġ a", "Ġt he", "i n", "Ġ o", "r e", "Ġ s", "Ġ w", "e r", "n d", "o n", "a t", "i t", "Ġ b", "i s", "o u", "Ġ c", "e n", "Ġo f", "Ġ m", "e s", "č Ċ", "Ġ p", "Ġ f", "o r", "Ġa nd", "Ġ h", "Ġ d", "Ġ in", "Ġt o", "e d", "a n", "Ġt h", "a r", "l l", "Ġ l", "Ġ n", "in g", "i c", "i on", "Ġb e", "o m", "a s", "Ġ e", "l e", "v e", "en t", "o t", "s e", "Ġ I", "u t", "s t", "Ġ g", "a l", "c t", "Ġ y", "Ġw h", "Ġ is", "c e", "Ġ re", "v er", "o w", "Ġth at", "i m", "Ġ it", "Ġ u", "l y", "Ġy ou", "Ġ T", "Ġh a", "Ġ he", "i r", "Ġf or", "e t", "l d", "Ġa s", "u r", "a y", "Ġ _", "Ġo n", "i d", "r o", "it h", "g h", "he r", "Ġn ot", "i ll", "ic h", "Ġa n", "q u", "â Ģ", "Ġw ith", "Ġc on", "Ġw e", "Ġo r", "Ġ A", "i f", "Ġd e", "Ġwh ich", "c h", "a m", "Ġs u", "at ion", "Ġb y", "Ġs t", "Ġ S", "Ġa re", "t er", "Ġs e", "Ġha ve", "p e", "a d", "ĠT he", "Ġe x", "r i", "es s", "a ll", "o d", "a in", "ou ld", "i l", "Ġc om", "Ġs h", "o re", "u l", "re s", "Ġm e", "gh t", "es t", "Ġa t", "Ġs o", "at e", "Ġh is", "k e", "i ve", "e ct", "r a", "Ġb ut", "Ġw ill", "an t", "Ġ v", "u s", "Ġn e", "Ġ W", "er s", "g e", "Ġw as", "Ġa ll", "r om", "Ġth is", "Ġthe y", "Ġ C", "a b", "Ġp ro", "i es", "Ġ k", "ar t", "l a", "Ġg o", "i v", "Ġm an", "ou s", "Ġ M", "Ġthe ir", "m ent", "o s", "it y", "Ġ H", "u st", "Ã ©", "Ġf rom", "n t", "Ġ B", "o l", "Ġ qu", "ou r", "is t", "ver y", "p p", "Ġl e", "Ġw he", "Ġl a", "i g", "t her", "Ġthe m", "t h", "Ġyou r", "u re", "om e", "t e", "Ġc h", "Ġm y", "Ġd o", "or d", "r u", "am e", "Ġh im", "Ġa d", "o se", "u m", "p le", "i e", "Ġ P", "Ġu p", "re d", "Ġon e", "Ġu n", "Ġ E", "Ġ F", "âĢ Ļ", "ar d", "en ce", "Ġ j", "Ġa l", "Ġn o", "Ġs a", "ion s", "Ġc an", "Ġm ay", "Ġ 1", "re at", "c i", "o st", "Ġo ther", "j ect", "se l", "e m", "Ġthe re", "Ġwh o", "Ġm a", "_ ,", "Ġw ould", "as t", "in d", "on g", "Ġ r", "i ght", "or t", "Ġ âĢ", "Ġu s", "u n", "p er", "Ġp r", "Ġm ore", "a nd", "Ġ L", "- -", "Ġ im", "Ġ N", "Ġp art", "Ġ en", "Ġ O", "an s", "an ce", "Ġha d", "c c", "Ġ G", "ab le", "Ġa b", "ĠT h", "p t", "Ġf a", "Ġh as", "f f", "Ġ if", "i re", "ou t", "c k", "ar y", "Ġin t", "Ġth an", "' s", "Ġbe en", "ou nd", "Ġan y", "Ġth ou", "o nd", "Ġp e", "Ġfor m", "Ġo b", "Ġa m", "Ġs pe", "a k", "Ġd is", "Ġk n", "Ġwe re", "it t", "er t", "c es", "Ġwhe n", "Ġg reat", "u d", "Ġo ur", "Ġ R", "Ġs ome", "Ġt im", "is h", "Ġ (", "Ġcom m", "Ġ D", "Ġf e", "Ġup on", "Ġa r", "all y", "Ġ very", "ĠS t", "in e", "Ġl i", "r y", "Ġsu b", "Ġp re", "Ġhe r", "o k", "a u", "res s", "Ġsh ould", "p l", "on e", "Ġd es", "re e", "Ġp er", "ic e", "Ġw or", "Ġit s", "ĠâĢ ĺ", "sel f", "Ġwh at", "as s", "ĠA nd", "v en", "Ġe t", "f ore", "a re", "Ġl o", "Ġp l", "Ġthe se", "ct ion", "Ġin d", "Ġa g", "ou nt", "ow n", "w e", "Ġtim e", "Ġcon t", "Ġm ust", "Ġon ly", "a g", "Ġint o", "Ġs he", "w n", "Ġgo od", "f e"]}}