{"version": "1.0", "truncation": null, "padding": null, "added_tokens": [{"id": 0, "content": "<|endoftext|>", "single_word": false, "lstrip": false, "rstrip": false, "normalized": false, "special": true}], "normalizer": null, "pre_tokenizer": {"type": "ByteLevel", "add_prefix_space": false, "trim_offsets": true, "use_regex": true}, "post_processor": null, "decoder": null, "model": {"type": "BPE", "dropout": null, "unk_token": null, "continuing_subword_prefix": null, "end_of_word_suffix": null, "fuse_unk": false, "byte_fallback": false, "ignore_merges": false, "vocab": {"<|endoftext|>": 0, "!": 1, "\"": 2, "#": 3, "$": 4, "%": 5, "&": 6, "'": 7, "(": 8, ")": 9, "*": 10, "+": 11, ",": 12, "-": 13, ".": 14, "/": 15, "0": 16, "1": 17, "2": 18, "3": 19, "4": 20, "5": 21, "6": 22, "7": 23, "8": 24, "9": 25, ":": 26, ";": 27, "=": 28, ">": 29, "?": 30, "@": 31, "A": 32, "B": 33, "C": 34, "D": 35, "E": 36, "F": 37, "G": 38, "H": 39, "I": 40, "J": 41, "K": 42, "L": 43, "M": 44, "N": 45, "O": 46, "P": 47, "Q": 48, "R": 49, "S": 50, "T": 51, "U": 52, "V": 53, "W": 54, "X": 55, "Y": 56, "Z": 57, "[": 58, "]": 59, "^": 60, "_": 61, "`": 62, "a": 63, "b": 64, "c": 65, "d": 66, "e": 67, "f": 68, "g": 69, "h": 70, "i": 71, "j": 72, "k": 73, "l": 74, "m": 75, "n": 76, "o": 77, "p": 78, "q": 79, "r": 80, "s": 81, "t": 82, "u": 83, "v": 84, "w": 85, "x": 86, "y": 87, "z": 88, "{": 89, "|": 90, "}": 91, "~": 92, "¡": 93, "¢": 94, "£": 95, "¤": 96, "¦": 97, "§": 98, "¨": 99, "©": 100, "ª": 101, "«": 102, "®": 103, "¯": 104, "°": 105, "±": 106, "²": 107, "³": 108, "´": 109, "µ": 110, "¶": 111, "·": 112, "¸": 113, "¹": 114, "º": 115, "»": 116, "¼": 117, "½": 118, "¾": 119, "¿": 120, "Â": 121, "Ã": 122, "Ä": 123, "Å": 124, "Î": 125, "Ï": 126, "á": 127, "â": 128, "ĉ": 129, "Ċ": 130, "č": 131, "Ġ": 132, "Ģ": 133, "ģ": 134, "Ĥ": 135, "ĥ": 136, "Ħ": 137, "ħ": 138, "Ĩ": 139, "ĩ": 140, "Ī": 141, "ī": 142, "Ĭ": 143, "ĭ": 144, "į": 145, "İ": 146, "ı": 147, "Ĵ": 148, "ĵ": 149, "Ķ": 150, "ķ": 151, "ĸ": 152, "ĺ": 153, "Ļ": 154, "ľ": 155, "Ŀ": 156, "ŀ": 157, "ł": 158, "Ġt": 159, "he": 160, "Ġa": 161, "čĊ": 162, "in": 163, "Ġthe": 164, "Ġo": 165, "re": 166, "ĠĠ": 167, "Ġs": 168, "er": 169, "Ġw": 170, "nd": 171, "on": 172, "at": 173, "it": 174, "ou": 175, "is": 176, "en": 177, "Ġb": 178, "Ġof": 179, "es": 180, "Ġc": 181, "Ġm": 182, "Ġp": 183, "or": 184, "Ġf": 185, "an": 186, "ed": 187, "Ġand": 188, "Ġh": 189, "Ġto": 190, "Ġin": 191, "Ġd": 192, "ar": 193, "Ġth": 194, "ll": 195, "ĠĠĠĠ": 196, "Ġl": 197, "Ġn": 198, "ing": 199, "ic": 200, "ion": 201, "as": 202, "om": 203, "Ġbe": 204, "le": 205, "Ġe": 206, "ve": 207, "ent": 208, "se": 209, "ot": 210, "st": 211, "al": 212, "ut": 213, "Ġg": 214, "ct": 215, "ĠI": 216, "ce": 217, "Ġis": 218, "Ġy": 219, "Ġwh": 220, "ver": 221, "ow": 222, "im": 223, "ly": 224, "Ġit": 225, "Ġthat": 226, "Ġre": 227, "Ġyou": 228, "Ġu": 229, "ir": 230, "Ġha": 231, "Ġhe": 232, "et": 233, "ld": 234, "Ġfor": 235, "ur": 236, "ay": 237, "Ġas": 238, "id": 239, "ĠĠĠĠĠĠĠĠ": 240, "ro": 241, "ĠT": 242, "Ġ_": 243, "ith": 244, "Ġon": 245, "the": 246, "gh": 247, "ill": 248, "ich": 249, "qu": 250, "âĢ": 251, "Ġnot": 252, "ch": 253, "if": 254, "Ġan": 255, "am": 256, "Ġwe": 257, "Ġwith": 258, "Ġor": 259, "Ġde": 260, "ation": 261, "ad": 262, "Ġwhich": 263, "Ġcon": 264, "ter": 265, "pe": 266, "Ġby": 267, "Ġsu": 268, "Ġare": 269, "all": 270, "ri": 271, "ess": 272, "Ġhave": 273, "Ġst": 274, "Ġse": 275, "od": 276, "ain": 277, "ould": 278, "and": 279, "il": 280, "res": 281, "ĠS": 282, "th": 283, "ul": 284, "Ġex": 285, "ore": 286, "ĠA": 287, "ght": 288, "est": 289, "ĠThe": 290, "Ġsh": 291, "ate": 292, "Ġcom": 293, "ke": 294, "ive": 295, "Ġme": 296, "her": 297, "ect": 298, "Ġat": 299, "Ġso": 300, "ant": 301, "Ġhis": 302, "us": 303, "ab": 304, "Ġwill": 305, "Ġbut": 306, "ge": 307, "ers": 308, "ra": 309, "rom": 310, "Ġv": 311, "Ġwas": 312, "Ġall": 313, "Ġne": 314, "ies": 315, "Ġthis": 316, "ĠĠĠ": 317, "Ġthey": 318, "our": 319, "iv": 320, "ment": 321, "ous": 322, "os": 323, "Ġk": 324, "ity": 325, "to": 326, "ust": 327, "Ã©": 328, "ĠC": 329, "ol": 330, "te": 331, "Ġpro": 332, "very": 333, "Ġgo": 334, "Ġman": 335, "pp": 336, "art": 337, "Ġtheir": 338, "nt": 339, "Ġfrom": 340, "ig": 341, "ist": 342, "ome": 343, "ure": 344, "Ġqu": 345, "ord": 346, "la": 347, "ther": 348, "Ġle": 349, "Ġwhe": 350, "Ġyour": 351, "ru": 352, "ame": 353, "Ġmy": 354, "Ġthem": 355, "ĠM": 356, "ple": 357, "Ġdo": 358, "ose": 359, "um": 360, "ie": 361, "red": 362, "ĠW": 363, "Ġch": 364, "Ġhim": 365, "ĠH": 366, "âĢĻ": 367, "ard": 368, "ĠB": 369, "ence": 370, "Ġla": 371, "ions": 372, "Ġup": 373, "un": 374, "Ġone": 375, "Ġad": 376, "ind": 377, "reat": 378, "Ġno": 379, "Ġun": 380, "ci": 381, "ost": 382, "em": 383, "Ġ1": 384, "per": 385, "Ġsa": 386, "Ġmay": 387, "ĠP": 388, "sel": 389, "Ġj": 390, "Ġal": 391, "ĠE": 392, "Ġcan": 393, "ject": 394, "_,": 395, "ast": 396, "ĠĠĠĠĠĠĠĠĠĠĠĠĠĠĠĠ": 397, "ong": 398, "ort": 399, "The": 400, "ak": 401, "Ġother": 402, "ight": 403, "Ġwho": 404, "--": 405, "ans": 406, "Ġwould": 407, "Ġthere": 408, "Ġus": 409, "able": 410, "ance": 411, "Ġr": 412, "ff": 413, "ĠF": 414, "Ġmore": 415, "cc": 416, "out": 417, "ĠâĢ": 418, "pt": 419, "Ġpr": 420, "ake": 421, "ire": 422, "Ġhad": 423, "ck": 424, "ary": 425, "Ġen": 426, "'s": 427, "Ġpart": 428, "ound": 429, "Ġif": 430, "are": 431, "Ġhas": 432, "Ġim": 433, "ond": 434, "Ġab": 435, "now": 436, "we": 437, "of": 438, "Ġfa": 439, "Ġthan": 440, "Ġbeen": 441, "not": 442, "itt": 443, "ces": 444, "Ġany": 445, "ag": 446, "ud": 447, "ert": 448, "ish": 449, "Ġthou": 450, "one": 451, "ĠL": 452, "ĠG": 453, "Ġam": 454, "ime": 455, "bject": 456, "pl": 457, "Ġform": 458, "Ġpe": 459, "Ġwere": 460, "ine": 461, "ally": 462, "Ġour": 463, "Ġwhen": 464, "au": 465, "ry": 466, "ĠN": 467, "Ġspe": 468, "Ġgreat": 469, "be": 470, "ok": 471, "Ġ(": 472, "ass": 473, "ress": 474, "Ġsome": 475, "Ġupon": 476, "ree": 477, "self": 478, "ib": 479, "ice": 480, "Ġfe": 481, "fore": 482, "Ġvery": 483, "bl": 484, "Ġdis": 485, "Ġher": 486, "ĠR": 487, "ven": 488, "ĠO": 489, "Ġar": 490, "fe": 491, "Ġcomm": 492, "Ġwhat": 493, "Ġits": 494, "ction": 495, "ĠSt": 496, "Ġshould": 497, "Ġet": 498, "Ġwor": 499, "ĠD": 500, "ount": 501, "Ġpre": 502, "ĠâĢĺ": 503, "Ġdes": 504, "ne": 505, "con": 506, "hat": 507, "Ġlo": 508, "Ġper": 509, "ide": 510, "Ġpl": 511, "ations": 512, "ap": 513, "Ġthese": 514, "age": 515, "_.": 516, "uch": 517, "Ġshe": 518, "Ġtime": 519, "Ġmust": 520, "Ġag": 521, "Ġonly": 522, "Ġinto": 523, "Ġknow": 524, "wn": 525, "ates": 526, "oun": 527, "ach": 528, "Ġgood": 529, "nder": 530, "ase": 531, "me": 532, "ue": 533, "other": 534, "ise": 535, "Ġlaw": 536, "ng": 537, "for": 538, "Ġind": 539, "Ġcont": 540, "Ġshall": 541, "Ġpo": 542, "ike": 543, "wo": 544, "Ġtr": 545, "own": 546, "ings": 547, "ang": 548, "Ġsame": 549, "ower": 550, "Ġlet": 551, "Ġgr": 552, "ens": 553, "Ġout": 554, "ite": 555, "ade": 556, "ition": 557, "Ġnat": 558, "ough": 559, "irst": 560, "ign": 561, "Ġmost": 562, "ays": 563, "pos": 564, "Ġsaid": 565, "his": 566, "ĠIt": 567, "HE": 568, "ener": 569, "Ġthose": 570, "wh": 571, "ac": 572, "Ġsuch": 573, "Ġsee": 574, "'d": 575, "Ġword": 576, "resent": 577, "Ġevery": 578, "ated": 579, "vern": 580, "Ġ2": 581, "ber": 582, "so": 583, "ars": 584, "ople": 585, "ep": 586, "ons": 587, "int": 588, "Ġcons": 589, "el": 590, "ves": 591, "Ġnow": 592, "bs": 593, "Ġcl": 594, "Ġtwo": 595, "oth": 596, "ced": 597, "Ġbet": 598, "hed": 599, "Ġwell": 600, "ave": 601, "ĠY": 602, "act": 603, "ult": 604, "cess": 605, "oll": 606, "ren": 607, "ittle": 608, "ĠIn": 609, "ither": 610, "EN": 611, "Ġdif": 612, "com": 613, "Ġmuch": 614, "ER": 615, "Ġthen": 616, "Ġlike": 617, "ood": 618, "ious": 619, "ath": 620, "cl": 621, "Ġsp": 622, "Ġbr": 623, "Ġcomp": 624, "iz": 625, "end": 626, "ink": 627, "Ġown": 628, "ife": 629, "Ġres": 630, "Ġhow": 631, "And": 632, "ied": 633, "stit": 634, "ĠBut": 635, "op": 636, "erv": 637, "Ġimp": 638, "Ġuse": 639, "Ġpers": 640, "IN": 641, "Ġsent": 642, "man": 643, "ution": 644, "mer": 645, "Ġpeople": 646, "Ġfirst": 647, "ĠJ": 648, "ful": 649, "âĢĿ": 650, "Ġapp": 651, "ex": 652, "Ġlittle": 653, "ative": 654, "Ġking": 655, "uth": 656, "Ġpower": 657, "ical": 658, "Ġoff": 659, "Ġwhere": 660, "ON": 661, "ual": 662, "Ġrem": 663, "Ġ\"": 664, "Ãł": 665, "Ġacc": 666, "ors": 667, "right": 668, "ici": 669, "du": 670, "that": 671, "urn": 672, "Ġmen": 673, "Ġunder": 674, "oss": 675, "vernment": 676, "ell": 677, "Ġmake": 678, "Ġgener": 679, "ĠU": 680, "hen": 681, "ertain": 682, "oy": 683, "AR": 684, "ular": 685, "Ġbeing": 686, "Ġpla": 687, "ives": 688, "ather": 689, "fter": 690, "Ġagain": 691, "cies": 692, "ĠHe": 693, "ĠV": 694, "ness": 695, "ubl": 696, "ward": 697, ".]": 698, "sh": 699, "rit": 700, "ause": 701, "ict": 702, "Ġmade": 703, "pect": 704, "ited": 705, "Ġrep": 706, "Ġpar": 707, "Ġwithout": 708, "ory": 709, "Ġmany": 710, "Ġbec": 711, "ile": 712, "Ġlong": 713, "ute": 714, "Ġsay": 715, "av": 716, "hing": 717, "Ġcould": 718, "Ġexp": 719, "ull": 720, "oot": 721, "Ġcall": 722, "Ġprin": 723, "Ġver": 724, "ants": 725, "Ġsubject": 726, "ever": 727, "les": 728, "Ġest": 729, "Ġnever": 730, "Ġdist": 731, "ten": 732, "Ġused": 733, "ily": 734, "Ġrel": 735, "Ġque": 736, ".+": 737, "old": 738, "Ġmod": 739, "su": 740, "Ġinf": 741, "ngl": 742, "ty": 743, "Ġeach": 744, "Ġ+": 745, "use": 746, "Ġcour": 747, "ĠStates": 748, "rent": 749, "led": 750, "ild": 751, "Ġobject": 752, "ark": 753, "atter": 754, "Ġcount": 755, "hes": 756, "ec": 757, "ip": 758, "Ġtoo": 759, "ĠÃł": 760, "ural": 761, "ublic": 762, "Ġ3": 763, "Ġye": 764, "Ġro": 765, "Ġletter": 766, "Ġchar": 767, "Ġact": 768, "Ġover": 769, "its": 770, "ope": 771, "ible": 772, "Ġright": 773, "Ġhere": 774, "âĢĶ": 775, "Ġbefore": 776, "Ġwords": 777, "ĠUn": 778, "Ġple": 779, "Ġfl": 780, "Ġtake": 781, "Ġhand": 782, "Ġinst": 783, "meric": 784, "ĠWe": 785, "Ġreg": 786, "vers": 787, "Ġlife": 788, "ĠAnd": 789, "Ġem": 790, "Ġord": 791, "which": 792, "riv": 793, "Ġdiffe": 794, "Ġnew": 795, "Ġbel": 796, "form": 797, "Ġsec": 798, "Ġcannot": 799, "Ġra": 800, "tend": 801, "Ġcommon": 802, "Ġap": 803, "imes": 804, "ial": 805, "Ġnature": 806, "ES": 807, "ts": 808, "Ġcome": 809, "og": 810, "ense": 811, "cy": 812, "less": 813, "Ã¨": 814, "ick": 815, "pend": 816, "ments": 817, "Ġjust": 818, "ook": 819, "ffect": 820, "Ġnum": 821, "Ġthink": 822, "..": 823, "Ġyet": 824, "ways": 825, "omet": 826, "Ġgovernment": 827, "Ġmight": 828, "Ġent": 829, "Ġma": 830, "ĠThis": 831, "ween": 832, "vent": 833, "Ġafter": 834, "ble": 835, "here": 836, "iss": 837, "Ġfound": 838, "Ġgive": 839, "Ġend": 840, "ph": 841, "ait": 842, "Ġspecies": 843, "Ġthr": 844, "Ġpresent": 845, "Ġthought": 846, "ouse": 847, "Ġeven": 848, "ĠĠĠĠĠĠĠĠĠĠĠĠ": 849, "Ġless": 850, "Ġsupp": 851, "ove": 852, "de": 853, "Ġboth": 854, "ĠâĢľ": 855, "ason": 856, "rest": 857, "Ġposs": 858, "ari": 859, "Ġext": 860, "ority": 861, "ished": 862, "Ġsub": 863, "Ġold": 864, "ĠEngl": 865, "Ġconf": 866, "riend": 867, "Ġpass": 868, "pro": 869, "Ġworld": 870, "Ġalso": 871, "TI": 872, "Ġfind": 873, "Ġtru": 874, "Ġcla": 875, "with": 876, "Ġcertain": 877, "In": 878, "ner": 879, "ning": 880, "ody": 881, "ater": 882, "Ġatt": 883, "ety": 884, "Ġperson": 885, "ently": 886, "Ġru": 887, "note": 888, "Ġdid": 889, "ix": 890, "stitution": 891, "get": 892, "Ġac": 893, "ootnote": 894, "ĠIf": 895, "Ġread": 896, "Footnote": 897, "ollow": 898, "selves": 899, "Ġday": 900, "any": 901, "Ġlast": 902, "Ġabout": 903, "Ġthough": 904, "Ġlook": 905, "ĠAmeric": 906, "Ġseem": 907, "ran": 908, "Ġcond": 909, "Ġcor": 910, "rib": 911, "Ġles": 912, "Ġalways": 913, "igh": 914, "iness": 915, "Ġleg": 916, "US": 917, "Ġstill": 918, "ont": 919, "li": 920, "ases": 921, "bt": 922, "Ġway": 923, "aint": 924, "Ġnecess": 925, "ents": 926, "cept": 927, "ities": 928, "Ġinte": 929, "Ġlaws": 930, "pr": 931, "Ġplace": 932, "._": 933, "Ġbetween": 934, "Ġwr": 935, "Ġanother": 936, "ility": 937, "Ġfar": 938, "ince": 939, "ret": 940, "read": 941, "Ġexpress": 942, "Ġbl": 943, "Ġcase": 944, "OR": 945, "Ġnor": 946, "Ġass": 947, "ĠTh": 948, "als": 949, "ider": 950, "ract": 951, "AN": 952, "Ġsc": 953, "lect": 954, "oc": 955, "ET": 956, "Ġadv": 957, "Ġwork": 958, "Wh": 959, "ures": 960, "To": 961, "Ġtherefore": 962, "Ġaw": 963, "Ġthy": 964, "Ġproper": 965, "fect": 966, "Ġfriend": 967, "ving": 968, "ĠTHE": 969, "II": 970, "Ġop": 971, "most": 972, "ace": 973, "Ġauth": 974, "ack": 975, "Ġsomet": 976, "ĠFor": 977, "Ġappe": 978, "ia": 979, ".âĢĻ": 980, "Ġthings": 981, "Ġspeak": 982, "Ġco": 983, "Ġbeg": 984, "Ġoften": 985, "ences": 986, "Ġcar": 987, "Ġpur": 988, "Ġeither": 989, "ived": 990, "Ġfollow": 991, "Ġset": 992, "Ġce": 993, "Ġmeans": 994, "Th": 995, "ĠMr": 996, "irect": 997, "ivid": 998, "Ġ4": 999, "min": 1000, "Ġgeneral": 1001, "But": 1002, "ux": 1003, "que": 1004, "Ġbest": 1005, "ird": 1006, "Ġke": 1007, "Ġnoun": 1008, "Ġadd": 1009, ".\"": 1010, "ved": 1011, "Ġexam": 1012, "Ġkind": 1013, "par": 1014, "ĠState": 1015, "THE": 1016, "Ġmean": 1017, "ĠK": 1018, "Ġinter": 1019, "air": 1020, "Ġcalled": 1021, "Ãª": 1022, "Ġprinci": 1023}, "merges": ["Ġ t", "h e", "Ġ a", "č Ċ", "i n", "Ġt he", "Ġ o", "r e", "Ġ Ġ", "Ġ s", "e r", "Ġ w", "n d", "o n", "a t", "i t", "o u", "i s", "e n", "Ġ b", "Ġo f", "e s", "Ġ c", "Ġ m", "Ġ p", "o r", "Ġ f", "a n", "e d", "Ġa nd", "Ġ h", "Ġt o", "Ġ in", "Ġ d", "a r", "Ġt h", "l l", "ĠĠ ĠĠ", "Ġ l", "Ġ n", "in g", "i c", "i on", "a s", "o m", "Ġb e", "l e", "Ġ e", "v e", "en t", "s e", "o t", "s t", "a l", "u t", "Ġ g", "c t", "Ġ I", "c e", "Ġ is", "Ġ y", "Ġw h", "v er", "o w", "i m", "l y", "Ġ it", "Ġth at", "Ġ re", "Ġy ou", "Ġ u", "i r", "Ġh a", "Ġ he", "e t", "l d", "Ġf or", "u r", "a y", "Ġa s", "i d", "ĠĠĠĠ ĠĠĠĠ", "r o", "Ġ T", "Ġ _", "it h", "Ġo n", "t he", "g h", "i ll", "ic h", "q u", "â Ģ", "Ġn ot", "c h", "i f", "Ġa n", "a m", "Ġw e", "Ġw ith", "Ġo r", "Ġd e", "at ion", "a d", "Ġwh ich", "Ġc on", "t er", "p e", "Ġb y", "Ġs u", "Ġa re", "a ll", "r i", "es s", "Ġha ve", "Ġs t", "Ġs e", "o d", "a in", "ou ld", "a nd", "i l", "re s", "Ġ S", "t h", "u l", "Ġe x", "o re", "Ġ A", "gh t", "es t", "ĠT he", "Ġs h", "at e", "Ġc om", "k e", "i ve", "Ġm e", "he r", "e ct", "Ġa t", "Ġs o", "an t", "Ġh is", "u s", "a b", "Ġw ill", "Ġb ut", "g e", "er s", "r a", "r om", "Ġ v", "Ġw as", "Ġa ll", "Ġn e", "i es", "Ġth is", "ĠĠ Ġ", "Ġthe y", "ou r", "i v", "m ent", "ou s", "o s", "Ġ k", "it y", "t o", "u st", "Ã ©", "Ġ C", "o l", "t e", "Ġp ro", "ver y", "Ġg o", "Ġm an", "p p", "ar t", "Ġthe ir", "n t", "Ġf rom", "i g", "is t", "om e", "u re", "Ġ qu", "or d", "l a", "the r", "Ġl e", "Ġw he", "Ġyou r", "r u", "am e", "Ġm y", "Ġthe m", "Ġ M", "p le", "Ġd o", "o se", "u m", "i e", "re d", "Ġ W", "Ġc h", "Ġh im", "Ġ H", "âĢ Ļ", "ar d", "Ġ B", "en ce", "Ġl a", "ion s", "Ġu p", "u n", "Ġon e", "Ġa d", "in d", "re at", "Ġn o", "Ġu n", "c i", "o st", "e m", "Ġ 1", "p er", "Ġs a", "Ġm ay", "Ġ P", "se l", "Ġ j", "Ġa l", "Ġ E", "Ġc an", "j ect", "_ ,", "as t", "ĠĠĠĠĠĠĠĠ ĠĠĠĠĠĠĠĠ", "on g", "or t", "T he", "a k", "Ġo ther", "i ght", "Ġwh o", "- -", "an s", "Ġw ould", "Ġthe re", "Ġu s", "ab le", "an ce", "Ġ r", "f f", "Ġ F", "Ġm ore", "c c", "ou t", "Ġ âĢ", "p t", "Ġp r", "a ke", "i re", "Ġha d", "c k", "ar y", "Ġ en", "' s", "Ġp art", "ou nd", "Ġ if", "a re", "Ġh as", "Ġ im", "o nd", "Ġa b", "n ow", "w e", "o f", "Ġf a", "Ġth an", "Ġbe en", "n ot", "it t", "c es", "Ġan y", "a g", "u d", "er t", "is h", "Ġth ou", "on e", "Ġ L", "Ġ G", "Ġa m", "im e", "b ject", "p l", "Ġfor m", "Ġp e", "Ġwe re", "in e", "all y", "Ġo ur", "Ġwhe n", "a u", "r y", "Ġ N", "Ġs pe", "Ġg reat", "b e", "o k", "Ġ (", "as s", "res s", "Ġs ome", "Ġup on", "re e", "sel f", "i b", "ic e", "Ġf e", "f ore", "Ġ very", "b l", "Ġd is", "Ġhe r", "Ġ R", "v en", "Ġ O", "Ġa r", "f e", "Ġcom m", "Ġwh at", "Ġit s", "ct ion", "ĠS t", "Ġsh ould", "Ġe t", "Ġw or", "Ġ D", "ou nt", "Ġp re", "ĠâĢ ĺ", "Ġd es", "n e", "c on", "h at", "Ġl o", "Ġp er", "id e", "Ġp l", "ation s", "a p", "Ġthe se", "a ge", "_ .", "u ch", "Ġs he", "Ġt ime", "Ġm ust", "Ġa g", "Ġon ly", "Ġin to", "Ġk now", "w n", "at es", "ou n", "a ch", "Ġgo od", "nd er", "as e", "m e", "u e", "ot her", "is e", "Ġla w", "n g", "f or", "Ġin d", "Ġcon t", "Ġsh all", "Ġp o", "i ke", "w o", "Ġt r", "ow n", "ing s", "an g", "Ġs ame", "ow er", "Ġl et", "Ġg r", "en s", "Ġo ut", "it e", "ad e", "it ion", "Ġn at", "ou gh", "ir st", "ig n", "Ġm ost", "ay s", "p os", "Ġsa id", "h is", "ĠI t", "H E", "en er", "Ġth ose", "w h", "a c", "Ġsu ch", "Ġse e", "' d", "Ġw ord", "res ent", "Ġe very", "at ed", "ver n", "Ġ 2", "b er", "s o", "ar s", "o ple", "e p", "on s", "in t", "Ġcon s", "e l", "v es", "Ġn ow", "b s", "Ġc l", "Ġt wo", "ot h", "c ed", "Ġbe t", "he d", "Ġwe ll", "a ve", "Ġ Y", "a ct", "ul t", "c ess", "o ll", "re n", "itt le", "ĠI n", "it her", "E N", "Ġd if", "c om", "Ġm uch", "E R", "Ġthe n", "Ġl ike", "o od", "i ous", "at h", "c l", "Ġs p", "Ġb r", "Ġcom p", "i z", "e nd", "in k", "Ġo wn", "if e", "Ġre s", "Ġh ow", "A nd", "i ed", "st it", "ĠB ut", "o p", "er v", "Ġim p", "Ġu se", "Ġp ers", "I N", "Ġs ent", "m an", "ut ion", "m er", "Ġpe ople", "Ġf irst", "Ġ J", "f ul", "âĢ Ŀ", "Ġa pp", "e x", "Ġl ittle", "at ive", "Ġk ing", "ut h", "Ġp ower", "ic al", "Ġof f", "Ġwhe re", "O N", "u al", "Ġre m", "Ġ \"", "Ã ł", "Ġa cc", "or s", "ri ght", "ic i", "d u", "th at", "ur n", "Ġm en", "Ġu nder", "os s", "vern ment", "e ll", "Ġm ake", "Ġg ener", "Ġ U", "he n", "ert ain", "o y", "A R", "ul ar", "Ġbe ing", "Ġp la", "iv es", "at her", "f ter", "Ġag ain", "c ies", "ĠH e", "Ġ V", "n ess", "u bl", "w ard", ". ]", "s h", "r it", "au se", "ic t", "Ġm ade", "pe ct", "it ed", "Ġre p", "Ġp ar", "Ġwith out", "or y", "Ġman y", "Ġbe c", "i le", "Ġl ong", "ut e", "Ġs ay", "a v", "h ing", "Ġc ould", "Ġex p", "u ll", "o ot", "Ġc all", "Ġpr in", "Ġ ver", "ant s", "Ġsu bject", "e ver", "l es", "Ġ est", "Ġne ver", "Ġd ist", "t en", "Ġus ed", "i ly", "Ġre l", "Ġqu e", ". +", "o ld", "Ġm od", "s u", "Ġin f", "ng l", "t y", "Ġe ach", "Ġ +", "u se", "Ġc our", "ĠSt ates", "re nt", "l ed", "i ld", "Ġo bject", "ar k", "at ter", "Ġc ount", "he s", "e c", "i p", "Ġto o", "Ġ Ãł", "ur al", "ubl ic", "Ġ 3", "Ġy e", "Ġ ro", "Ġlet ter", "Ġch ar", "Ġa ct", "Ġo ver", "it s", "o pe", "ib le", "Ġ right", "Ġhe re", "âĢ Ķ", "Ġbe fore", "Ġword s", "ĠU n", "Ġp le", "Ġf l", "Ġt ake", "Ġha nd", "Ġin st", "mer ic", "ĠW e", "Ġre g", "ver s", "Ġl ife", "ĠA nd", "Ġe m", "Ġor d", "wh ich", "ri v", "Ġdif fe", "Ġne w", "Ġbe l", "for m", "Ġse c", "Ġcan not", "Ġ ra", "te nd", "Ġcomm on", "Ġa p", "im es", "i al", "Ġnat ure", "E S", "t s", "Ġcom e", "o g", "en se", "c y", "l ess", "Ã ¨", "ic k", "pe nd", "ment s", "Ġj ust", "o ok", "ff ect", "Ġn um", "Ġth ink", ". .", "Ġy et", "w ays", "om et", "Ġgo vernment", "Ġm ight", "Ġ ent", "Ġm a", "ĠT his", "we en", "v ent", "Ġa fter", "b le", "he re", "is s", "Ġf ound", "Ġg ive", "Ġe nd", "p h", "a it", "Ġspe cies", "Ġth r", "Ġp resent", "Ġthou ght", "ou se", "Ġe ven", "ĠĠĠĠĠĠĠĠ ĠĠĠĠ", "Ġl ess", "Ġsu pp", "o ve", "d e", "Ġb oth", "ĠâĢ ľ", "as on", "re st", "Ġp oss", "ar i", "Ġex t", "or ity", "is hed", "Ġsu b", "Ġo ld", "ĠE ngl", "Ġcon f", "ri end", "Ġp ass", "p ro", "Ġwor ld", "Ġal so", "T I", "Ġf ind", "Ġt ru", "Ġc la", "w ith", "Ġc ertain", "I n", "n er", "n ing", "od y", "at er", "Ġat t", "et y", "Ġpers on", "ent ly", "Ġ ru", "not e", "Ġd id", "i x", "stit ution", "g et", "Ġa c", "oot note", "ĠI f", "Ġre ad", "F ootnote", "oll ow", "sel ves", "Ġd ay", "an y", "Ġl ast", "Ġab out", "Ġthou gh", "Ġlo ok", "ĠA meric", "Ġse em", "r an", "Ġc ond", "Ġc or", "ri b", "Ġl es", "Ġal ways", "i gh", "in ess", "Ġle g", "U S", "Ġst ill", "on t", "l i", "as es", "b t", "Ġw ay", "ain t", "Ġne cess", "ent s", "ce pt", "it ies", "Ġin te", "Ġlaw s", "p r", "Ġpla ce", ". _", "Ġbet ween", "Ġw r", "Ġan other", "il ity", "Ġf ar", "in ce", "re t", "re ad", "Ġexp ress", "Ġb l", "Ġc ase", "O R", "Ġn or", "Ġas s", "ĠT h", "al s", "id er", "ra ct", "A N", "Ġs c", "le ct", "o c", "E T", "Ġad v", "Ġwor k", "W h", "u res", "T o", "Ġthere fore", "Ġa w", "Ġth y", "Ġpro per", "f ect", "Ġf riend", "v ing", "ĠT HE", "I I", "Ġo p", "m ost", "a ce", "Ġa uth", "a ck", "Ġs omet", "ĠF or", "Ġap pe", "i a", ". âĢĻ", "Ġth ings", "Ġspe ak", "Ġc o", "Ġbe g", "Ġof ten", "en ces", "Ġc ar", "Ġp ur", "Ġe ither", "iv ed", "Ġf ollow", "Ġs et", "Ġc e", "Ġme ans", "T h", "ĠM r", "ire ct", "iv id", "Ġ 4", "m in", "Ġgener al", "B ut", "u x", "qu e", "Ġb est", "ir d", "Ġ ke", "Ġn oun", "Ġad d", ". \"", "v ed", "Ġex am", "Ġk ind", "p ar", "ĠSt ate", "T HE", "Ġme an", "Ġ K", "Ġin ter", "a ir", "Ġcall ed", "Ã ª", "Ġprin ci"]}}