{
  "version": "1.0",
  "truncation": null,
  "padding": null,
  "added_tokens": [],
  "normalizer": null,
  "pre_tokenizer": {
    "type": "ByteLevel",
    "add_prefix_space": false,
    "trim_offsets": true,
    "use_regex": true
  },
  "post_processor": null,
  "decoder": null,
  "model": {
    "type": "BPE",
    "dropout": null,
    "unk_token": null,
    "continuing_subword_prefix": null,
    "end_of_word_suffix": null,
    "fuse_unk": false,
    "byte_fallback": false,
    "ignore_merges": false,
    "vocab": {
      "!": 0,
      "\"": 1,
      "#": 2,
      "$": 3,
      "%": 4,
      "&": 5,
      "'": 6,
      "(": 7,
      ")": 8,
      "*": 9,
      "+": 10,
      ",": 11,
      "-": 12,
      ".": 13,
      "/": 14,
      "0": 15,
      "1": 16,
      "2": 17,
      "3": 18,
      "4": 19,
      "5": 20,
      "6": 21,
      "7": 22,
      "8": 23,
      "9": 24,
      ":": 25,
      ";": 26,
      "=": 27,
      "?": 28,
      "@": 29,
      "A": 30,
      "B": 31,
      "C": 32,
      "D": 33,
      "E": 34,
      "F": 35,
      "G": 36,
      "H": 37,
      "I": 38,
      "J": 39,
      "K": 40,
      "L": 41,
      "M": 42,
      "N": 43,
      "O": 44,
      "P": 45,
      "Q": 46,
      "R": 47,
      "S": 48,
      "T": 49,
      "U": 50,
      "V": 51,
      "W": 52,
      "X": 53,
      "Y": 54,
      "Z": 55,
      "[": 56,
      "]": 57,
      "^": 58,
      "_": 59,
      "a": 60,
      "b": 61,
      "c": 62,
      "d": 63,
      "e": 64,
      "f": 65,
      "g": 66,
      "h": 67,
      "i": 68,
      "j": 69,
      "k": 70,
      "l": 71,
      "m": 72,
      "n": 73,
      "o": 74,
      "p": 75,
      "q": 76,
      "r": 77,
      "s": 78,
      "t": 79,
      "u": 80,
      "v": 81,
      "w": 82,
      "x": 83,
      "y": 84,
      "z": 85,
      "{": 86,
      "|": 87,
      "}": 88,
      "~": 89,
      "¡": 90,
      "¢": 91,
      "£": 92,
      "¤": 93,
      "¦": 94,
      "§": 95,
      "¨": 96,
      "©": 97,
      "«": 98,
      "°": 99,
      "±": 100,
      "´": 101,
      "¶": 102,
      "·": 103,
      "¼": 104,
      "¾": 105,
      "Â": 106,
      "Ã": 107,
      "Ä": 108,
      "Å": 109,
      "â": 110,
      "Ċ": 111,
      "č": 112,
      "Ġ": 113,
      "Ģ": 114,
      "ģ": 115,
      "Ĩ": 116,
      "ĭ": 117,
      "į": 118,
      "ĵ": 119,
      "ķ": 120,
      "Ļ": 121,
      "ľ": 122,
      "Ŀ": 123,
      "ł": 124,
      "Ġt": 125,
      "he": 126,
      "Ġa": 127,
      "čĊ": 128,
      "in": 129,
      "Ġs": 130,
      "re": 131,
      "Ġthe": 132,
      "Ġo": 133,
      "Ġw": 134,
      "ou": 135,
      "er": 136,
      "Ġm": 137,
      "nd": 138,
      "is": 139,
      "ha": 140,
      "Ġb": 141,
      "on": 142,
      "or": 143,
      "en": 144,
      "Ġ_": 145,
      "Ġc": 146,
      "it": 147,
      "Ġf": 148,
      "es": 149,
      "Ġp": 150,
      "Ġof": 151,
      "ll": 152,
      "ed": 153,
      "Ġn": 154,
      "ar": 155,
      "Ġd": 156,
      "ing": 157,
      "at": 158,
      "Ġin": 159,
      "ve": 160,
      "ĠI": 161,
      "Ġto": 162,
      "om": 163,
      "Ġand": 164,
      "le": 165,
      "us": 166,
      "an": 167,
      "ĠT": 168,
      "ot": 169,
      "Ġth": 170,
      "ct": 171,
      "hat": 172,
      "Ġbe": 173,
      "Ġy": 174,
      "Ġl": 175,
      "Ġis": 176,
      "ic": 177,
      "as": 178,
      "Ġh": 179,
      "Ġyou": 180,
      "ow": 181,
      "Ġe": 182,
      "ent": 183,
      "ion": 184,
      "Ġg": 185,
      "ĠA": 186,
      "Ġha": 187,
      "ay": 188,
      "Ġhe": 189,
      "ce": 190,
      "se": 191,
      "ver": 192,
      "ut": 193,
      "Ġfor": 194,
      "al": 195,
      "st": 196,
      "ld": 197,
      "_,": 198,
      "im": 199,
      "ĠW": 200,
      "ive": 201,
      "Ġas": 202,
      "ect": 203,
      "ith": 204,
      "Ġnot": 205,
      "ur": 206,
      "Ġwe": 207,
      "ir": 208,
      "ĠThe": 209,
      "Ġthat": 210,
      "Ġre": 211,
      "Ġus": 212,
      "ord": 213,
      "Ġme": 214,
      "Ġit": 215,
      "gh": 216,
      "ly": 217,
      "od": 218,
      "ĠS": 219,
      "her": 220,
      "Ġwith": 221,
      "Ġor": 222,
      "et": 223,
      "Ġst": 224,
      "am": 225,
      "id": 226,
      "if": 227,
      "ill": 228,
      "Ġmy": 229,
      "ject": 230,
      "Ġare": 231,
      "ad": 232,
      "ke": 233,
      "ch": 234,
      "Ġwh": 235,
      "Ġsu": 236,
      "Ġcom": 237,
      "Ġan": 238,
      "Ġpr": 239,
      "ĠH": 240,
      "Ġhave": 241,
      "la": 242,
      "_.": 243,
      "ter": 244,
      "ould": 245,
      "Ġon": 246,
      "un": 247,
      "ĠC": 248,
      "oun": 249,
      "Ġcon": 250,
      "'s": 251,
      "ich": 252,
      "ght": 253,
      "verb": 254,
      "Ġad": 255,
      "ĠB": 256,
      "Ġse": 257,
      "res": 258,
      "ess": 259,
      "ĠM": 260,
      "Ġex": 261,
      "ple": 262,
      "ra": 263,
      "ri": 264,
      "Ġde": 265,
      "ĠP": 266,
      "ore": 267,
      "ĠO": 268,
      "Ġthis": 269,
      "ate": 270,
      "pe": 271,
      "Ġby": 272,
      "--": 273,
      "ul": 274,
      "Ġyour": 275,
      "Ġword": 276,
      "os": 277,
      "Ġk": 278,
      "ĠAnd": 279,
      "ge": 280,
      "Ġthou": 281,
      "Ġsh": 282,
      "Ġ1": 283,
      "Ġhis": 284,
      "est": 285,
      "EN": 286,
      "art": 287,
      "bject": 288,
      "all": 289,
      "qu": 290,
      "Ġwhich": 291,
      "ĠF": 292,
      "iv": 293,
      "Ġso": 294,
      "Ġ(": 295,
      "Ġ+": 296,
      "ome": 297,
      "Ġwill": 298,
      "IN": 299,
      "ĠN": 300,
      "ers": 301,
      ".+": 302,
      "ain": 303,
      "Ġbut": 304,
      "Ġdo": 305,
      "il": 306,
      "ĠE": 307,
      "Ġsent": 308,
      "ence": 309,
      "Ġhim": 310,
      "ro": 311,
      "Ġgo": 312,
      "Ġle": 313,
      "ru": 314,
      "ĠY": 315,
      "'d": 316,
      "Ġne": 317,
      "our": 318,
      "ation": 319,
      "th": 320,
      "IO": 321,
      "Ġverb": 322,
      "Ġused": 323,
      "han": 324,
      "hen": 325,
      "ak": 326,
      "ĠG": 327,
      "ĠL": 328,
      "AR": 329,
      "âĢ": 330,
      "ĠTh": 331,
      "ant": 332,
      "rom": 333,
      "Ġsha": 334,
      "Ġwas": 335,
      "Ġu": 336,
      "Ġv": 337,
      "ake": 338,
      "red": 339,
      "Ġmay": 340,
      "Ġno": 341,
      "Ġall": 342,
      "ight": 343,
      "ck": 344,
      "and": 345,
      "ust": 346,
      "ble": 347,
      "ress": 348,
      "ĠR": 349,
      "Ġlo": 350,
      "ast": 351,
      "Ġour": 352,
      "ol": 353,
      "Ġwords": 354,
      "ER": 355,
      "ction": 356,
      "ound": 357,
      "Ġman": 358,
      "Ġform": 359,
      "use": 360,
      "ong": 361,
      "ĠD": 362,
      "em": 363,
      "ard": 364,
      "Ġuse": 365,
      "ie": 366,
      "Ġat": 367,
      "ame": 368,
      "Ġfrom": 369,
      "ĠHe": 370,
      "ind": 371,
      "Ġnoun": 372,
      "ES": 373,
      "ous": 374,
      "ond": 375,
      "ell": 376,
      "Ġshould": 377,
      "to": 378,
      "ition": 379,
      "Ġqu": 380,
      "Ġspe": 381,
      "Ġal": 382,
      "ative": 383,
      "Ġcla": 384,
      "Ġone": 385,
      "ok": 386,
      "ine": 387,
      "Ġsentence": 388,
      "The": 389,
      "US": 390,
      "Ġthey": 391,
      "Ġexp": 392,
      "Ġkn": 393,
      "Ġthy": 394,
      "ist": 395,
      "Ġshall": 396,
      "ost": 397,
      "ose": 398,
      "Ġ2": 399,
      "pp": 400,
      "Ġpart": 401,
      "Ġher": 402,
      "ĠTo": 403,
      "sel": 404,
      "ther": 405,
      "Ġcan": 406,
      "Ġup": 407,
      "Ġr": 408,
      "Ġmore": 409,
      "Ġmean": 410,
      "one": 411,
      "um": 412,
      "Ġun": 413,
      "ish": 414,
      "Ġwhat": 415,
      "we": 416,
      "Ġadject": 417,
      "ives": 418,
      "ĠWh": 419,
      "Ġ'": 420,
      "Ġfa": 421,
      "ĠFor": 422,
      "ig": 423,
      "ase": 424,
      "ire": 425,
      "ry": 426,
      "te": 427,
      "Ġfo": 428,
      "row": 429,
      "ure": 430,
      "Ġsay": 431,
      "ci": 432,
      "ING": 433,
      "Ġli": 434,
      "ĠIn": 435,
      "OR": 436,
      "ĠWe": 437,
      "Ġwor": 438,
      "Ġwould": 439,
      "very": 440,
      "ces": 441,
      "Ġobject": 442,
      "Ġthese": 443,
      "Ġif": 444,
      "ity": 445,
      "Ġtheir": 446,
      "Ġthem": 447,
      "ment": 448,
      "ren": 449,
      "ort": 450,
      "oth": 451,
      "Ġsubject": 452,
      "oss": 453,
      "Ġam": 454,
      "ass": 455,
      "Ġgood": 456,
      "onoun": 457,
      "here": 458,
      "Ġsee": 459,
      "pt": 460,
      "ĠV": 461,
      "Ġexpress": 462,
      "Ġthere": 463,
      "Ġthee": 464,
      "Ġpre": 465,
      "per": 466,
      "Ġmod": 467,
      "ime": 468,
      "ĠBut": 469,
      "other": 470,
      "irst": 471,
      "Ġpro": 472,
      "Ġab": 473,
      "ies": 474,
      "Ġthan": 475,
      "UC": 476,
      "are": 477,
      "ary": 478,
      "reat": 479,
      "ear": 480,
      "fore": 481,
      "Ġar": 482,
      "Ġlet": 483,
      "Ġwhen": 484,
      "ĠYou": 485,
      "Ġsa": 486,
      "ĠThat": 487,
      "Ġknow": 488,
      "el": 489,
      "AN": 490,
      "age": 491,
      "ice": 492,
      "Ġcall": 493,
      "lo": 494,
      "Ġtw": 495,
      "Ġpronoun": 496,
      "Ġadverb": 497,
      "end": 498,
      "IC": 499,
      "Ġhad": 500,
      "hr": 501,
      "out": 502,
      "self": 503,
      "ng": 504,
      "ud": 505,
      "ber": 506,
      "ide": 507,
      "Ġcomp": 508,
      "Ġother": 509,
      "ET": 510,
      "Ġwere": 511,
      "erson": 512,
      "ced": 513,
      "Ġmodif": 514,
      "Ġsome": 515,
      "Ġind": 516,
      "Ġbeen": 517,
      "ven": 518,
      "ON": 519,
      "Ġj": 520,
      "ĠWhat": 521,
      "Ġ\"": 522,
      "Ġshe": 523,
      "ĠIt": 524,
      "fin": 525,
      "Ġsp": 526,
      "Ġbo": 527,
      "ree": 528,
      "itt": 529,
      "Ġbr": 530,
      "osition": 531,
      "Ġwr": 532,
      "ink": 533,
      "Ġexam": 534,
      "llow": 535,
      "icate": 536,
      "Ġnow": 537,
      "Ġclause": 538,
      "Ġ3": 539,
      "Ġtime": 540,
      "Ġcomm": 541,
      "Ġtwo": 542,
      "les": 543,
      "ings": 544,
      "ather": 545,
      "Ġlord": 546,
      "Ġcl": 547,
      "Ġlike": 548,
      "ag": 549,
      "'ll": 550,
      "ep": 551,
      "ade": 552,
      "Ġmake": 553,
      "ff": 554,
      "Ġmust": 555,
      "ath": 556,
      "ences": 557,
      "Ġperson": 558,
      "Ġfollow": 559,
      "Ġ[": 560,
      "ither": 561,
      "Ġhas": 562,
      "Ġpl": 563,
      "Ġcome": 564,
      "KING": 565,
      "cc": 566,
      "Ġhere": 567,
      "Ġsub": 568,
      "Ġsuch": 569,
      "Ġthen": 570,
      "ife": 571,
      "ec": 572,
      "Ġag": 573,
      "ful": 574,
      "ĠIf": 575,
      "Ġdes": 576,
      "Ġcomple": 577,
      "Ġhat": 578,
      "ang": 579,
      "Ġen": 580,
      "wh": 581,
      "Ġpla": 582,
      "Ġphr": 583,
      "ĠMy": 584,
      "ach": 585,
      "so": 586,
      "Ġdis": 587,
      "ici": 588,
      "ally": 589,
      "Ġhow": 590,
      "ions": 591,
      "the": 592,
      "way": 593,
      "redicate": 594,
      "ĠAs": 595,
      "fe": 596,
      "ied": 597,
      "Ġim": 598,
      "Ġsir": 599,
      ").": 600,
      "Ġch": 601,
      "Ġwell": 602,
      "Ġadjective": 603,
      "able": 604,
      "TIO": 605,
      "man": 606,
      "Ġgr": 607,
      "Ġsentences": 608,
      "Ġexample": 609,
      "LO": 610,
      "uch": 611,
      "Ġout": 612,
      "Ġco": 613,
      "Ġspeak": 614,
      "ite": 615,
      "ular": 616,
      "uses": 617,
      "ves": 618,
      "ough": 619,
      "ign": 620,
      ",--": 621,
      "ave": 622,
      "resent": 623,
      "Ġwho": 624,
      "âĢľ": 625,
      "âĢĿ": 626,
      "tain": 627,
      "ĠThis": 628,
      "itive": 629,
      "Ġupon": 630,
      "Ġany": 631,
      "Ġpo": 632,
      "LI": 633,
      "ARD": 634,
      "LA": 635,
      "ue": 636,
      "Ġits": 637,
      "ise": 638,
      "jun": 639,
      "ance": 640,
      "OM": 641,
      "Ġnouns": 642,
      "be": 643,
      ".--": 644,
      "IUS": 645,
      "Ġper": 646,
      "Ġlove": 647,
      "Ġcalled": 648,
      "ick": 649,
      "ten": 650,
      "wn": 651,
      "Ġking": 652,
      "ap": 653,
      "ĠJ": 654,
      "ood": 655,
      "Ġdid": 656,
      "Ġfirst": 657,
      "Ġsim": 658,
      "own": 659,
      "Ġtr": 660,
      "Ġbet": 661,
      "Ġmar": 662,
      "iz": 663,
      "Ġmade": 664,
      "Ġpredicate": 665,
      "nder": 666,
      "har": 667,
      "Ġmost": 668,
      "not": 669,
      "Ġverbs": 670,
      "ab": 671,
      "ĠâĢľ": 672,
      "ĠU": 673,
      "Ġcons": 674,
      "irect": 675,
      "Ġclauses": 676,
      "LE": 677,
      "ĠSo": 678,
      "position": 679,
      "ial": 680,
      "ild": 681,
      "ward": 682,
      "omet": 683,
      "ĠEng": 684,
      "Ġho": 685,
      "Ġway": 686,
      "ural": 687,
      "ause": 688,
      "ĠThey": 689,
      "ĠOF": 690,
      "for": 691,
      "tc": 692,
      "Ġfri": 693,
      "ince": 694,
      "KE": 695,
      "Ġbeg": 696,
      "Ġadjectives": 697,
      "Ġadd": 698,
      "Ġday": 699,
      "less": 700,
      "ness": 701,
      "int": 702,
      "Ġgreat": 703,
      "Ġfe": 704,
      "Ġrel": 705,
      "Ġmeaning": 706,
      "Ġthought": 707,
      "fter": 708,
      "Ġpe": 709,
      ".;": 710,
      "Ġend": 711,
      "TI": 712,
      "Ġoff": 713,
      "Ġgra": 714,
      "ved": 715,
      "Ġhath": 716,
      "ech": 717,
      "hing": 718,
      "ense": 719,
      "Ġhand": 720,
      "Ġvery": 721,
      "Ġalso": 722,
      "OL": 723,
      "Ġonly": 724,
      "EL": 725,
      "Ġdif": 726,
      "Ġtoo": 727,
      "Ġboth": 728,
      "Ġmen": 729,
      "cl": 730,
      "Ġnever": 731,
      "Ġetc": 732,
      "orn": 733,
      "lish": 734,
      "Ġthink": 735,
      "Ġagain": 736,
      "ory": 737,
      "Ġfather": 738,
      "Ġ4": 739,
      "hed": 740,
      "Ġposs": 741,
      "Ġbefore": 742,
      "Ġtake": 743,
      "Ġchan": 744,
      "Ġname": 745,
      "Ġsame": 746,
      "com": 747,
      "Ġtell": 748,
      "imes": 749,
      "Ġwork": 750,
      "._": 751,
      "day": 752,
      "Â§": 753,
      "ever": 754,
      "ĠThere": 755,
      "ĠCom": 756,
      "ving": 757,
      "ctions": 758,
      "Ġquest": 759,
      "Ġmeans": 760,
      "Ġro": 761,
      "'t": 762,
      "..": 763,
      "that": 764,
      "Ġsomet": 765,
      "Ġlife": 766,
      "ases": 767,
      "TER": 768,
      "ull": 769,
      "inate": 770,
      "Ġsing": 771,
      "Ġwhere": 772,
      "Ġart": 773,
      "Ġmuch": 774,
      "ile": 775,
      "feren": 776,
      "sh": 777,
      "Ġyet": 778,
      "Ġgive": 779,
      "In": 780,
      "Ġtru": 781,
      "Ġapp": 782,
      "Ġpresent": 783,
      "Ġrem": 784,
      "ĠWith": 785,
      "Ġstru": 786,
      "Ġfriend": 787,
      "Ġdeath": 788,
      "entle": 789,
      "TH": 790,
      "Ġacc": 791,
      "Ġimp": 792,
      "Ġlook": 793,
      "ĠDo": 794,
      "Ġser": 795,
      "umber": 796,
      "ĠAn": 797,
      "Ġstud": 798,
      "ĠWhen": 799,
      "ĠEnglish": 800,
      "urn": 801,
      "Ġoften": 802,
      "Ġletter": 803,
      "Ġplace": 804,
      "ack": 805,
      "Ġphrase": 806,
      "Ġpast": 807,
      "Ġheart": 808,
      "âĢĻ": 809,
      "CA": 810,
      "Ġswe": 811,
      "Ġown": 812,
      "ult": 813,
      "Ġforms": 814,
      "stru": 815,
      "Ġconjun": 816,
      "io": 817,
      "Ġpronouns": 818,
      "ph": 819,
      "ĠK": 820,
      "Ġbeing": 821,
      "ady": 822,
      "Ġcommon": 823,
      "Ġcont": 824,
      "Ġmany": 825,
      "Ġpreposition": 826,
      "angu": 827,
      "ps": 828,
      "Ġrep": 829,
      "ks": 830,
      "Ġfind": 831,
      "aster": 832,
      "ower": 833,
      ".,": 834,
      "au": 835,
      "ix": 836,
      "rown": 837,
      "Ġafter": 838,
      "Ġstand": 839,
      "Ġra": 840,
      "ote": 841,
      "iss": 842,
      ".]": 843,
      "ĠHow": 844,
      "Ġpartici": 845,
      "Ġhon": 846,
      "ICH": 847,
      "Ġhear": 848,
      "IS": 849,
      "Ġinto": 850,
      "Ġnew": 851,
      "Ġsimple": 852,
      "ier": 853,
      "Ġff": 854,
      "ans": 855,
      "INC": 856,
      "Ġseen": 857,
      "Ġfollowing": 858,
      "Th": 859,
      "ious": 860,
      "Ġlangu": 861,
      "Ġevery": 862,
      "ĠNo": 863,
      "+,": 864,
      "DU": 865,
      "II": 866,
      "hes": 867,
      "akes": 868,
      "DUKE": 869,
      "Ġcannot": 870,
      "Ġson": 871,
      "ens": 872,
      "Ġbrother": 873,
      "ee": 874,
      "Ġmine": 875,
      "Ġbec": 876,
      "Ġlong": 877,
      "ĠThou": 878,
      "Ġunder": 879,
      "_;": 880,
      "of": 881,
      "ty": 882,
      "Ġold": 883,
      "Ġclass": 884,
      "AS": 885,
      "li": 886,
      "Ġthing": 887,
      "Ġsec": 888,
      "ĠWhich": 889,
      "ars": 890,
      "ated": 891,
      "ICHARD": 892,
      "Ġpossess": 893,
      "ENTIO": 894,
      "lood": 895,
      "ĠWhy": 896,
      "Ġstate": 897,
      "ird": 898,
      "Ġshow": 899,
      "Ġ(_": 900,
      "Ġabout": 901,
      "EC": 902,
      "igh": 903,
      "Ġey": 904,
      "finitive": 905,
      "Ġless": 906,
      "pend": 907,
      "AU": 908,
      "_)": 909,
      "ac": 910,
      "Ġhea": 911,
      "nect": 912,
      "ĠBy": 913,
      "Ġmight": 914,
      "ĠGod": 915,
      "Ġspeech": 916,
      "Ġsaid": 917,
      "ical": 918,
      "Ġlanguage": 919,
      "ouse": 920,
      "Ġconf": 921,
      "Ġpass": 922,
      "Ġord": 923,
      "Ġjo": 924,
      "Ġbook": 925,
      "Ġdifferen": 926,
      "Ġ6": 927,
      "ordinate": 928,
      "OT": 929,
      "ĠYour": 930,
      "AB": 931,
      "Ġbel": 932,
      "Ġ5": 933,
      "Ġri": 934,
      "Ġsound": 935,
      "hall": 936,
      "Ġfl": 937,
      "ples": 938,
      "Ġthings": 939,
      "Ġstruck": 940,
      "Ġaction": 941,
      "Ġblood": 942,
      "Ġconnect": 943,
      "ning": 944,
      "Ġbl": 945,
      "Ġkind": 946,
      "ĠIs": 947,
      "ĠOf": 948,
      "Ġplural": 949,
      "Ġsw": 950,
      "Ġem": 951,
      ".\"": 952,
      "Ġnor": 953,
      "Ġthose": 954,
      "Ġadverbs": 955,
      "fect": 956,
      "Ġcase": 957,
      "ĠBe": 958,
      "ms": 959,
      "oul": 960,
      "ors": 961,
      "Ġple": 962,
      "alk": 963,
      "cri": 964,
      "Ġstr": 965,
      "First": 966,
      "Ġsy": 967,
      "Ġcor": 968,
      "UE": 969,
      "VE": 970,
      "Ġke": 971,
      "ittle": 972,
      "Ġtrue": 973,
      "Ġ{": 974,
      "Ġwar": 975,
      "Ġcoun": 976,
      "Ġeach": 977,
      "ener": 978,
      "Ġnumber": 979,
      "Ġint": 980,
      "ctive": 981,
      "ys": 982,
      "Ġcould": 983,
      "lp": 984,
      "ought": 985,
      "ison": 986,
      "ute": 987,
      "atter": 988,
      "ove": 989,
      "ways": 990,
      "UM": 991,
      "aw": 992,
      "ace": 993,
      "uth": 994,
      "stant": 995,
      "ĠRICHARD": 996,
      "Ġgentle": 997,
      "ĠWhere": 998,
      "Ġworld": 999,
      "Ġcompound": 1000,
      "Ġsc": 1001,
      "orrow": 1002,
      "Ġthus": 1003,
      "ĠCome": 1004,
      "UCH": 1005,
      "Sec": 1006,
      "ily": 1007,
      "iers": 1008,
      "ons": 1009,
      "Ġdist": 1010,
      "Ġres": 1011,
      "Ġbegin": 1012,
      "Ġrest": 1013,
      "ef": 1014,
      "omin": 1015,
      "GLO": 1016,
      "He": 1017,
      "RE": 1018,
      "RY": 1019,
      "Ġhead": 1020,
      "urp": 1021,
      "Ġwithout": 1022,
      "ĠMar": 1023,
      "cept": 1024,
      "ESTER": 1025,
      "UCESTER": 1026,
      "GLOUCESTER": 1027,
      "Ġent": 1028,
      "Ġlittle": 1029,
      "Ġparticiple": 1030,
      "ĠNow": 1031,
      "Ġchild": 1032,
      "ne": 1033,
      "Ġfear": 1034,
      "me": 1035,
      "Ġdone": 1036,
      "tis": 1037,
      "Ġdown": 1038,
      "ates": 1039,
      "ĠRome": 1040,
      "ip": 1041,
      "sw": 1042,
      "old": 1043,
      "ert": 1044,
      "Ġreg": 1045,
      "ations": 1046,
      "LAN": 1047,
      "Ġden": 1048,
      "Ġread": 1049,
      "Ġconstru": 1050,
      "Ġneed": 1051,
      "RO": 1052,
      "ople": 1053,
      "Ġcare": 1054,
      "atch": 1055,
      "Ġanother": 1056,
      "fer": 1057,
      "get": 1058,
      "Ġfound": 1059,
      "Ġhast": 1060,
      "Ġthr": 1061,
      "ĠThus": 1062,
      "QUE": 1063,
      "led": 1064,
      "ub": 1065,
      "Ġinfinitive": 1066,
      "ĠSee": 1067,
      "ĠEd": 1068,
      "INCENTIO": 1069,
      "QUEEN": 1070,
      "ged": 1071,
      "Ġstudy": 1072,
      "Ġru": 1073,
      "arn": 1074,
      "Ġthree": 1075,
      "ĠSt": 1076,
      "Ġalways": 1077,
      "Ġcond": 1078,
      "Ġ(Â§": 1079,
      "Ġinde": 1080,
      "Ġbetter": 1081,
      "Ġstill": 1082,
      "ĠOr": 1083,
      "AL": 1084,
      "Ġtra": 1085,
      "rog": 1086,
      "Ġmodify": 1087,
      "Ġphrases": 1088,
      "Ġdisc": 1089,
      "Ġinter": 1090,
      "Ġhelp": 1091,
      "Ġ10": 1092,
      "AM": 1093,
      "erc": 1094,
      "ork": 1095,
      "Ġdoes": 1096,
      "ĠHere": 1097,
      "ears": 1098,
      "Ġset": 1099,
      "Ġpa": 1100,
      "Ġever": 1101,
      "ĠAd": 1102,
      "Ġwrit": 1103,
      "rect": 1104,
      "land": 1105,
      "ments": 1106,
      "ft": 1107,
      "Ġsense": 1108,
      "Ġlast": 1109,
      "odu": 1110,
      "amm": 1111,
      "Ġcomplete": 1112,
      "Ġ|": 1113,
      "ertain": 1114,
      "ĠThese": 1115,
      "Ġvo": 1116,
      "EO": 1117,
      "Ġgl": 1118,
      "Ġgener": 1119,
      "Ġhar": 1120,
      "ENRY": 1121,
      "ĠLet": 1122,
      "ween": 1123,
      "Ġfair": 1124,
      "ominative": 1125,
      "cess": 1126,
      "+.": 1127,
      "Ġ11": 1128,
      "Ġpeople": 1129,
      "de": 1130,
      "Ġsweet": 1131,
      "Ġsecond": 1132,
      "Ġpower": 1133,
      "ĠTH": 1134,
      "urse": 1135,
      "Ġbear": 1136,
      "Ġap": 1137,
      "UN": 1138,
      "ilt": 1139,
      "Ġsometimes": 1140,
      "uke": 1141,
      "Ġass": 1142,
      "ENS": 1143,
      "ESS": 1144,
      "Ġcame": 1145,
      "Ġpar": 1146,
      "Ġnight": 1147,
      "ĠVINCENTIO": 1148,
      "Ġcour": 1149,
      "Ġhouse": 1150,
      "ENC": 1151,
      "form": 1152,
      "Ġhonour": 1153,
      "MEN": 1154,
      "ORK": 1155,
      "Ġdescri": 1156,
      "its": 1157,
      "Ġdou": 1158,
      "ĠPr": 1159,
      "Ġproper": 1160,
      "Ġquestion": 1161,
      "bs": 1162,
      "Ġseem": 1163,
      "Ġwom": 1164,
      "Ġbest": 1165,
      "Ġlive": 1166,
      "ĠThen": 1167,
      "Ġ8": 1168,
      "Ġput": 1169,
      "Ġnothing": 1170,
      "ghter": 1171,
      "Ġaway": 1172,
      "ined": 1173,
      "Ġnat": 1174,
      "Ġpray": 1175,
      "AP": 1176,
      "act": 1177,
      "ted": 1178,
      "Ġeither": 1179,
      "Ġcomes": 1180,
      "ived": 1181,
      "Ġjust": 1182,
      "Ġdifferent": 1183,
      "INIUS": 1184,
      "ĠLord": 1185,
      "nce": 1186,
      "Ġover": 1187,
      "Ġcha": 1188,
      "selves": 1189,
      "Ġheaven": 1190,
      ":--": 1191,
      "UL": 1192,
      "par": 1193,
      "Ġnoble": 1194,
      "ĠUn": 1195,
      "Ġrelative": 1196,
      "oh": 1197,
      "Ġsm": 1198,
      "Ġdoth": 1199,
      "ĠNor": 1200,
      "ĠGl": 1201,
      "pendent": 1202,
      "DW": 1203,
      "Ġdie": 1204,
      "raph": 1205,
      "Ġdefin": 1206,
      "Ġ15": 1207,
      "Ġide": 1208,
      "ĠNot": 1209,
      "Ġright": 1210,
      "DWARD": 1211,
      "Ġsoul": 1212,
      "Ġma": 1213,
      "Ġdirect": 1214,
      "Ġsubordinate": 1215,
      "TIVE": 1216,
      "ohn": 1217,
      "Ġmind": 1218,
      "Ġthough": 1219,
      "Ġleave": 1220,
      "Ġparts": 1221,
      "Ġsingular": 1222,
      "oud": 1223,
      "ished": 1224,
      "Ġbre": 1225,
      "urs": 1226,
      "Ġorder": 1227,
      "ible": 1228,
      "arth": 1229,
      "ĠWho": 1230,
      "PET": 1231,
      "een": 1232,
      "Ġstri": 1233,
      "ĠCla": 1234,
      "Ġdead": 1235,
      "Ġ12": 1236,
      "LUC": 1237,
      "Ġ7": 1238,
      "Ġmother": 1239,
      "ember": 1240,
      "ew": 1241,
      "lf": 1242,
      "Ġmis": 1243,
      "ont": 1244,
      "who": 1245,
      "Ġintr": 1246,
      "ĠTHE": 1247,
      "most": 1248,
      "op": 1249,
      "Ġprin": 1250,
      "ĠEdward": 1251,
      "vent": 1252,
      "rew": 1253,
      "Ġgone": 1254,
      "Ġeyes": 1255,
      "ail": 1256,
      "Ġom": 1257,
      "any": 1258,
      "ason": 1259,
      "ossary": 1260,
      "Ġtherefore": 1261,
      "ex": 1262,
      "ual": 1263,
      "iness": 1264,
      "Ġmyself": 1265,
      "Ġ14": 1266,
      "ROM": 1267,
      "Ġmist": 1268,
      "Ġnominative": 1269,
      "ĠAy": 1270,
      "TION": 1271,
      "ead": 1272,
      "Ġask": 1273,
      "Ġconjunctions": 1274,
      "Ġbecause": 1275,
      "vers": 1276,
      "ENIUS": 1277,
      "Second": 1278,
      "ROMEO": 1279,
      "UT": 1280,
      "men": 1281,
      "Ġ16": 1282,
      "Ġ17": 1283,
      "INA": 1284,
      "ONT": 1285,
      "Ġfriends": 1286,
      "MENENIUS": 1287,
      "ĠHis": 1288,
      "Ġpossessive": 1289,
      "ook": 1290,
      "Ġmaster": 1291,
      "ield": 1292,
      "Ġqueen": 1293,
      "ian": 1294,
      "ran": 1295,
      "ĠIII": 1296,
      "Ġhome": 1297,
      "iden": 1298,
      "Ġbetween": 1299,
      "RUCH": 1300,
      "rong": 1301,
      "ts": 1302,
      "Ġmo": 1303,
      "ark": 1304,
      "Ġinst": 1305,
      "ody": 1306,
      "ĠSir": 1307,
      "Ġansw": 1308,
      "itten": 1309,
      "PETRUCH": 1310,
      "PETRUCHIO": 1311,
      "ND": 1312,
      "ually": 1313,
      "Ġearth": 1314,
      "ĠWill": 1315,
      "Ġstay": 1316,
      "ames": 1317,
      "Ġgramm": 1318,
      "Ġpoor": 1319,
      "COR": 1320,
      "Ġtre": 1321,
      "Ġsla": 1322,
      "Ġ13": 1323,
      "ENT": 1324,
      "tend": 1325,
      "hard": 1326,
      "ia": 1327,
      "Ġsince": 1328,
      "Ġgu": 1329,
      "ender": 1330,
      "Ġchange": 1331,
      "aughter": 1332,
      "GE": 1333,
      "ner": 1334,
      "what": 1335,
      "will": 1336,
      "aking": 1337,
      "Ġatt": 1338,
      "Ġcondition": 1339,
      "uck": 1340,
      "Ġwife": 1341,
      "Ġback": 1342,
      "ĠThan": 1343,
      "Ġhence": 1344,
      "Ġsubstant": 1345,
      "Ġagainst": 1346,
      "Ġkeep": 1347,
      "Ġgeneral": 1348,
      "Ġ9": 1349,
      "Ġsuff": 1350,
      "Ġhimself": 1351,
      "cedent": 1352,
      "which": 1353,
      "Ġquestions": 1354,
      "ECT": 1355,
      "PER": 1356,
      "uc": 1357,
      "ules": 1358,
      "Ġintrodu": 1359,
      "vo": 1360,
      "with": 1361,
      "Ġwo": 1362,
      "Ġbus": 1363,
      "Ġlie": 1364,
      "IOLAN": 1365,
      "ĠGo": 1366,
      "OMP": 1367,
      "Ġnews": 1368,
      "IOLANUS": 1369,
      "Wh": 1370,
      "ract": 1371,
      "OTE": 1372,
      "CORIOLANUS": 1373,
      "und": 1374,
      "Ġsle": 1375,
      "Ġmakes": 1376,
      "Ġcle": 1377,
      "Ġcontain": 1378,
      "Ġgrace": 1379,
      "ENCE": 1380,
      "pl": 1381,
      "ins": 1382,
      "Ġwant": 1383,
      "Ġfar": 1384,
      "Ġdaughter": 1385,
      "Ġlist": 1386,
      "Ġgiv": 1387,
      "Ġ19": 1388,
      "Ġqual": 1389,
      "itted": 1390,
      "apit": 1391,
      "Ġtri": 1392,
      "Ġfell": 1393,
      "used": 1394,
      "Ġel": 1395,
      "uture": 1396,
      "Ġonce": 1397,
      "ĠYork": 1398,
      "Ġpoint": 1399,
      "but": 1400,
      "erm": 1401,
      "itiz": 1402,
      "Ġfall": 1403,
      "Ġfull": 1404,
      "une": 1405,
      "Ġconjunction": 1406,
      "urpose": 1407,
      "vant": 1408,
      "Ġtong": 1409,
      "als": 1410,
      "ĠWar": 1411,
      "rief": 1412,
      "ĠEDWARD": 1413,
      "Ġconstruction": 1414,
      "RAN": 1415,
      "ger": 1416,
      "ĠShe": 1417,
      "Ġvar": 1418,
      "ORD": 1419,
      "MI": 1420,
      "Ġsl": 1421,
      "Ġmatter": 1422,
      "ater": 1423,
      "Ġrequ": 1424,
      "cious": 1425,
      "Siden": 1426,
      "Ġwhom": 1427,
      "Ġvow": 1428,
      "tecedent": 1429,
      "Ġwritten": 1430,
      "Ġcorrect": 1431,
      "Sidenote": 1432,
      "We": 1433,
      "ared": 1434,
      "bt": 1435,
      "Ġyoung": 1436,
      "Ġlearn": 1437,
      "onder": 1438,
      "asure": 1439,
      "Ġhour": 1440,
      "ently": 1441,
      "uty": 1442,
      "ĠNOTE": 1443,
      "ffect": 1444,
      "Ġletters": 1445,
      "Ġanswer": 1446,
      "hether": 1447,
      "arly": 1448,
      "Ġeven": 1449,
      "Ġhapp": 1450,
      "stand": 1451,
      "ĠEx": 1452,
      "OUN": 1453,
      "Ġbra": 1454,
      "Ġfact": 1455,
      "Ġimport": 1456,
      "Right": 1457,
      "iet": 1458,
      "Ġcause": 1459,
      "Ġinf": 1460,
      "ichard": 1461,
      "ords": 1462,
      "Ġadverbial": 1463,
      "),": 1464,
      "enry": 1465,
      "Ġcrown": 1466,
      "Ġantecedent": 1467,
      "ĠRichard": 1468,
      "con": 1469,
      "was": 1470,
      "wick": 1471,
      "Ġwish": 1472,
      "Ġmad": 1473,
      "Ġdiv": 1474,
      "Ġmodifiers": 1475,
      "ĠJohn": 1476,
      "ize": 1477,
      "Ġemp": 1478,
      "gether": 1479,
      "DY": 1480,
      "ax": 1481,
      "bl": 1482,
      "ited": 1483,
      "Ġdre": 1484,
      "Ġhigh": 1485,
      "Ġheard": 1486,
      "Ġobjective": 1487,
      "Ġseeing": 1488,
      "JU": 1489,
      "Ġbu": 1490,
      "ĠYORK": 1491,
      "comple": 1492,
      "ĠWarwick": 1493,
      "Tis": 1494,
      "Ġlaw": 1495,
      "ided": 1496,
      "Ġsaw": 1497,
      "Ġindic": 1498,
      "Ġperfect": 1499,
      "Ġsomething": 1500,
      "ĠGlossary": 1501,
      "RI": 1502,
      "Ġprince": 1503,
      "Ġspell": 1504,
      "Ġboy": 1505,
      "Ġending": 1506,
      "Ġelse": 1507,
      "has": 1508,
      "Ġcertain": 1509,
      "Ġfre": 1510,
      "eth": 1511,
      "Ġindirect": 1512,
      "Ġpeace": 1513,
      "ELLA": 1514,
      "ISAB": 1515,
      "Ġrule": 1516,
      "ISABELLA": 1517,
      "SI": 1518,
      "ius": 1519,
      "ict": 1520,
      "ĠWell": 1521,
      "Ġwhose": 1522,
      "ieve": 1523,
      "Ġrules": 1524,
      "Ġface": 1525,
      "Ġwrong": 1526,
      "agraph": 1527,
      "Ġcomplex": 1528,
      "Ġinc": 1529,
      "Ġ18": 1530,
      "Ġhope": 1531,
      "ĠOur": 1532,
      "Ġexpressed": 1533,
      "ĠRomeo": 1534,
      "rogative": 1535,
      "gg": 1536,
      "when": 1537,
      "Ġill": 1538,
      "Ġtalk": 1539,
      "Ġchar": 1540,
      "ĠAll": 1541,
      "_.]": 1542,
      "LIET": 1543,
      "LEONT": 1544,
      "Ġprinci": 1545,
      "JULIET": 1546,
      "LEONTES": 1547,
      "Ġlight": 1548,
      "ĠHenry": 1549,
      "Ġdear": 1550,
      "ĠNay": 1551,
      "ĠVer": 1552,
      "Ġbring": 1553,
      "Ġgiven": 1554,
      "Ġac": 1555,
      "Ġact": 1556,
      "ating": 1557,
      "ĠIV": 1558,
      "ĠHave": 1559,
      "rence": 1560,
      "BR": 1561,
      "Ġbid": 1562,
      "Ġpurpose": 1563,
      "Ġforth": 1564,
      "ERB": 1565,
      "Ġmodified": 1566,
      "Ġhowever": 1567,
      "LADY": 1568,
      "clam": 1569,
      "Ġthrough": 1570,
      "VOL": 1571,
      "no": 1572,
      "pound": 1573,
      "ring": 1574,
      "Ġcar": 1575,
      "ices": 1576,
      "osed": 1577,
      "Ġrather": 1578,
      "Ġgrou": 1579,
      "Ġfeel": 1580,
      "Ġremember": 1581,
      "Ġtill": 1582,
      "ĠII": 1583,
      "Ġwhy": 1584,
      "Ġsupp": 1585,
      "ĠCon": 1586,
      "Ġobjects": 1587,
      "Ġcompar": 1588,
      "Ġcomplement": 1589,
      "Ġtongue": 1590,
      "ford": 1591,
      "pect": 1592,
      "ues": 1593,
      "ret": 1594,
      "Ġlim": 1595,
      "oken": 1596,
      "Ġplay": 1597,
      "This": 1598,
      "An": 1599,
      "yal": 1600,
      "rel": 1601,
      "Ġbes": 1602,
      "Ġsubstantive": 1603,
      "SIC": 1604,
      "Wrong": 1605,
      "og": 1606,
      "Ġop": 1607,
      "Ġtogether": 1608,
      "Ġreason": 1609,
      "ĠShall": 1610,
      "Ġanal": 1611,
      "aken": 1612,
      "Ġcommand": 1613,
      "Ġnature": 1614,
      "SICINIUS": 1615,
      "ister": 1616,
      "Ġthird": 1617,
      "ows": 1618,
      "Ġrece": 1619,
      "iew": 1620,
      "Ġunto": 1621,
      "were": 1622,
      "10": 1623,
      "come": 1624,
      "Ġwit": 1625,
      "Ġlives": 1626,
      "Ġlady": 1627,
      "Ġhum": 1628,
      "Ġshort": 1629,
      "junctive": 1630,
      "Ġhands": 1631,
      "Ġsingle": 1632,
      "AST": 1633,
      "ash": 1634,
      "Ġitself": 1635,
      "Ġsun": 1636,
      "Ġ20": 1637,
      "ully": 1638,
      "Ġcount": 1639,
      "lt": 1640,
      "Ġsign": 1641,
      "Ġban": 1642,
      "orse": 1643,
      "Ġgrow": 1644,
      "unt": 1645,
      "ĠGood": 1646,
      "ardon": 1647,
      "...": 1648,
      "Ġpassive": 1649,
      "fort": 1650,
      "up": 1651,
      "Ġbreat": 1652,
      "Ġche": 1653,
      "Ġbea": 1654,
      "ried": 1655,
      "ĠThy": 1656,
      "ĠDe": 1657,
      "ICK": 1658,
      "Ġparagraph": 1659,
      "ST": 1660,
      "band": 1661,
      "sand": 1662,
      "Ġtense": 1663,
      "Ġdet": 1664,
      "Ġdev": 1665,
      "thy": 1666,
      "ĠVI": 1667,
      "LUCIO": 1668,
      "ek": 1669,
      "fully": 1670,
      "Ġcapit": 1671,
      "Ġduke": 1672,
      "Ġhus": 1673,
      "aint": 1674,
      "Ġfew": 1675,
      "Ġdoubt": 1676,
      "NE": 1677,
      "PO": 1678,
      "cle": 1679,
      "ience": 1680,
      "where": 1681,
      "err": 1682,
      "Ġbro": 1683,
      "Ġcr": 1684,
      "Ġdr": 1685,
      "ĠTENS": 1686,
      "Ġdeg": 1687,
      "Ġmark": 1688,
      "by": 1689,
      "Ġwind": 1690,
      "Ġele": 1691,
      "ury": 1692,
      "Ġmeet": 1693,
      "Ġexcept": 1694,
      "Ġthousand": 1695,
      "ĠYet": 1696,
      "Ġarm": 1697,
      "Ġclose": 1698,
      "LIZ": 1699,
      "Ġbelong": 1700,
      "Ġinstead": 1701,
      "ĠTENSE": 1702,
      "If": 1703,
      "pal": 1704,
      "well": 1705,
      "Ġsil": 1706,
      "rest": 1707,
      "Ġnone": 1708,
      "Ġins": 1709,
      "Ġthine": 1710,
      "Ġusually": 1711,
      "cial": 1712,
      "like": 1713,
      "Ġsyll": 1714,
      "Ġwoman": 1715,
      "ised": 1716,
      "Ġland": 1717,
      "Ġequ": 1718,
      "ceed": 1719,
      "Ġfort": 1720,
      "should": 1721,
      "PR": 1722,
      "vy": 1723,
      "Ġocc": 1724,
      "atives": 1725,
      "Ġyears": 1726,
      "Ġget": 1727,
      "ĠELIZ": 1728,
      "Ġnecess": 1729,
      "ETH": 1730,
      "Ġspoken": 1731,
      "Ġtruth": 1732,
      "ship": 1733,
      "ABETH": 1734,
      "Ġhusband": 1735,
      "ĠELIZABETH": 1736,
      "It": 1737,
      "ale": 1738,
      "ĠÂ§": 1739,
      "Ġturn": 1740,
      "Ġdra": 1741,
      "Ġwithin": 1742,
      "Ġwhile": 1743,
      "ief": 1744,
      "Ġpreced": 1745,
      "HENRY": 1746,
      "mer": 1747,
      "ities": 1748,
      "Ġpat": 1749,
      "Ġref": 1750,
      "ĠSh": 1751,
      "Ġsoon": 1752,
      "Ġpersons": 1753,
      "Ġte": 1754,
      "Ġfuture": 1755,
      "Ġnames": 1756,
      "Ġret": 1757,
      "Ġsepar": 1758,
      "ĠPR": 1759,
      "ĠFrom": 1760,
      "Ġstrike": 1761,
      "Ġgrammar": 1762,
      "itizen": 1763,
      "den": 1764,
      "mon": 1765,
      "itor": 1766,
      "vere": 1767,
      "stit": 1768,
      "Ġsold": 1769,
      "rov": 1770,
      "Ġ28": 1771,
      "Ġbecome": 1772,
      "Ġdenot": 1773,
      "Ġbusiness": 1774,
      "rant": 1775,
      "Ġwin": 1776,
      "Ġcity": 1777,
      "Ġpun": 1778,
      "ĠInd": 1779,
      "ctu": 1780,
      "Ġeas": 1781,
      "ĠAl": 1782,
      "Ġrec": 1783,
      "ĠSome": 1784,
      "Ġste": 1785,
      "rop": 1786,
      "Ġexamples": 1787,
      "ission": 1788,
      "Ġvowel": 1789,
      "HAM": 1790,
      "WAR": 1791,
      "WICK": 1792,
      "iol": 1793,
      "nt": 1794,
      "shall": 1795,
      "tle": 1796,
      "Ġmain": 1797,
      "Ġfore": 1798,
      "ĠAD": 1799,
      "ĠHENRY": 1800,
      "Ġlesson": 1801,
      "Ġregard": 1802,
      "Ġhard": 1803,
      "Ġcountry": 1804,
      "WARWICK": 1805,
      ".âĢĿ": 1806,
      "Ġ...": 1807,
      "rer": 1808,
      "Ġwonder": 1809,
      "Ġbody": 1810,
      "Ġca": 1811,
      "Ġfree": 1812,
      "Ġlay": 1813,
      "ution": 1814,
      "ility": 1815,
      "Ġabs": 1816,
      "Ġstatement": 1817,
      "Ġeye": 1818,
      "ges": 1819,
      "mp": 1820,
      "Ġtem": 1821,
      "iter": 1822,
      "Ġfire": 1823,
      "velo": 1824,
      "lack": 1825,
      "ousin": 1826,
      "Ġexpression": 1827,
      "Ġmodifies": 1828,
      "Ġmodifier": 1829,
      "Ġlords": 1830,
      "Ġjoy": 1831,
      "Ġbeginning": 1832,
      "GR": 1833,
      "GRE": 1834,
      "lcome": 1835,
      "Ġfin": 1836,
      "ĠAr": 1837,
      "ĠSay": 1838,
      "ili": 1839,
      "ages": 1840,
      "Ġconsist": 1841,
      "Ġhold": 1842,
      "Com": 1843,
      "morrow": 1844,
      "Ġtears": 1845,
      "Ġlate": 1846,
      "icular": 1847,
      "ods": 1848,
      "ĠSer": 1849,
      "jective": 1850,
      "Ġpract": 1851,
      "ĠCitizen": 1852,
      "ERS": 1853,
      "ULET": 1854,
      "UR": 1855,
      "When": 1856,
      "mb": 1857,
      "oy": 1858,
      "Ġtold": 1859,
      "anc": 1860,
      "Ġrefer": 1861,
      "ĠMAR": 1862,
      "esty": 1863,
      "Ġquot": 1864,
      "Ġenem": 1865,
      "Ġcourse": 1866,
      "Ġidea": 1867,
      ",\"": 1868,
      "LAR": 1869,
      "MIO": 1870,
      "gth": 1871,
      "ike": 1872,
      "ires": 1873,
      "ling": 1874,
      "Ġauth": 1875,
      "Ġmon": 1876,
      "ĠIN": 1877,
      "cho": 1878,
      "ĠOn": 1879,
      "Ġkill": 1880,
      "Ġparticular": 1881,
      "Ġrun": 1882,
      "Ġvoice": 1883,
      "Ġimportant": 1884,
      ",âĢĿ": 1885,
      "BRO": 1886,
      "do": 1887,
      "now": 1888,
      "ures": 1889,
      "vi": 1890,
      "Ġsorrow": 1891,
      "Ġwhether": 1892,
      "Ġfour": 1893,
      "Ġdep": 1894,
      "Ġleft": 1895,
      "ĠKing": 1896,
      "ansitive": 1897,
      "Ġunderstand": 1898,
      "Ġplease": 1899,
      "Ġappe": 1900,
      "TRAN": 1901,
      "You": 1902,
      "air": 1903,
      "Ġi": 1904,
      "ern": 1905,
      "Ġfight": 1906,
      "ĠAt": 1907,
      "ording": 1908,
      "ols": 1909,
      "UCKING": 1910,
      "Ġroyal": 1911,
      "Ġbelieve": 1912,
      "Ġassert": 1913,
      "Ġbreak": 1914,
      "UTUS": 1915,
      "Ġsleep": 1916,
      "BRUTUS": 1917,
      "UCKINGHAM": 1918,
      "BUCKINGHAM": 1919,
      "Nurse": 1920,
      "rd": 1921,
      "reg": 1922,
      "Ġpres": 1923,
      "ĠSuch": 1924,
      "ĠBOL": 1925,
      "Ġval": 1926,
      "INGBRO": 1927,
      "TRANIO": 1928,
      "ĠBOLINGBRO": 1929,
      "ĠBOLINGBROKE": 1930,
      "GAR": 1931,
      "cla": 1932,
      "ired": 1933,
      "lic": 1934,
      "ting": 1935,
      "Ġmere": 1936,
      "ĠSu": 1937,
      "Ġsend": 1938,
      "Ġmanner": 1939,
      "Ġunt": 1940,
      "anger": 1941,
      "Ġenough": 1942,
      "IR": 1943,
      "ught": 1944,
      "Ġtit": 1945,
      "Ġtimes": 1946,
      "Ġrev": 1947,
      "Ġexclam": 1948,
      "Ġlost": 1949,
      "Ġexpressions": 1950,
      "Ġthank": 1951,
      "Ġwhole": 1952,
      "Ġgentleman": 1953,
      "Ġfellow": 1954,
      "Ġcapital": 1955,
      "br": 1956,
      "vice": 1957,
      "would": 1958,
      "you": 1959,
      "Ġwalk": 1960,
      "oura": 1961,
      "Ġere": 1962,
      "alse": 1963,
      "irt": 1964,
      "Ġmet": 1965,
      "Ġprom": 1966,
      "ĠCl": 1967,
      "Ġyourself": 1968,
      "Ġfault": 1969,
      "Ġspir": 1970,
      "Ġdiff": 1971,
      "._]": 1972,
      "Ġwriting": 1973,
      "Ġintroduced": 1974,
      "velop": 1975,
      "IA": 1976,
      "To": 1977,
      "yp": 1978,
      "reet": 1979,
      "Ġbed": 1980,
      "ange": 1981,
      "ents": 1982,
      "alt": 1983,
      "imple": 1984,
      "Ġuses": 1985,
      "Ġusage": 1986,
      "ider": 1987,
      "ung": 1988,
      "Ġshame": 1989,
      "Ġformed": 1990,
      "Ġsubjunctive": 1991,
      "Ġplaced": 1992,
      "Ġdream": 1993,
      "ĠMARGAR": 1994,
      "ĠMARGARET": 1995,
      "ATH": 1996,
      "CH": 1997,
      "MAR": 1998,
      "ken": 1999,
      "ouch": 2000,
      "Ġfam": 2001,
      "Ġpardon": 2002,
      "ics": 2003,
      "Ġhither": 2004,
      "Ġhaving": 2005,
      "vern": 2006,
      "Ġweep": 2007,
      "ides": 2008,
      "Ġyours": 2009,
      "ustr": 2010,
      "perative": 2011,
      "Ġ30": 2012,
      "Ġrelation": 2013,
      "Ġthoughts": 2014,
      "Ġstands": 2015,
      "Ġbooks": 2016,
      "Ġdistin": 2017,
      "Ġfrequ": 2018,
      "HOR": 2019,
      "SH": 2020,
      "oke": 2021,
      "xt": 2022,
      "Ġwilt": 2023,
      "have": 2024,
      "Ġcol": 2025,
      "ĠAND": 2026,
      "urde": 2027,
      "Ġsever": 2028,
      "--_": 2029,
      "Ġvill": 2030,
      "Ġdays": 2031,
      "Ġchildren": 2032,
      "ledge": 2033,
      "Ġmodifying": 2034,
      "Ġspelling": 2035,
      "aid": 2036,
      "pr": 2037,
      "Ġfur": 2038,
      "Ġdi": 2039,
      "ĠTake": 2040,
      "Ġbeh": 2041,
      "ention": 2042,
      "Ġgrief": 2043,
      "ident": 2044,
      "ressive": 2045,
      "ĠRe": 2046,
      "oney": 2047
    },
    "merges": [
      [
        "Ġ",
        "t"
      ],
      [
        "h",
        "e"
      ],
      [
        "Ġ",
        "a"
      ],
      [
        "č",
        "Ċ"
      ],
      [
        "i",
        "n"
      ],
      [
        "Ġ",
        "s"
      ],
      [
        "r",
        "e"
      ],
      [
        "Ġt",
        "he"
      ],
      [
        "Ġ",
        "o"
      ],
      [
        "Ġ",
        "w"
      ],
      [
        "o",
        "u"
      ],
      [
        "e",
        "r"
      ],
      [
        "Ġ",
        "m"
      ],
      [
        "n",
        "d"
      ],
      [
        "i",
        "s"
      ],
      [
        "h",
        "a"
      ],
      [
        "Ġ",
        "b"
      ],
      [
        "o",
        "n"
      ],
      [
        "o",
        "r"
      ],
      [
        "e",
        "n"
      ],
      [
        "Ġ",
        "_"
      ],
      [
        "Ġ",
        "c"
      ],
      [
        "i",
        "t"
      ],
      [
        "Ġ",
        "f"
      ],
      [
        "e",
        "s"
      ],
      [
        "Ġ",
        "p"
      ],
      [
        "Ġo",
        "f"
      ],
      [
        "l",
        "l"
      ],
      [
        "e",
        "d"
      ],
      [
        "Ġ",
        "n"
      ],
      [
        "a",
        "r"
      ],
      [
        "Ġ",
        "d"
      ],
      [
        "in",
        "g"
      ],
      [
        "a",
        "t"
      ],
      [
        "Ġ",
        "in"
      ],
      [
        "v",
        "e"
      ],
      [
        "Ġ",
        "I"
      ],
      [
        "Ġt",
        "o"
      ],
      [
        "o",
        "m"
      ],
      [
        "Ġa",
        "nd"
      ],
      [
        "l",
        "e"
      ],
      [
        "u",
        "s"
      ],
      [
        "a",
        "n"
      ],
      [
        "Ġ",
        "T"
      ],
      [
        "o",
        "t"
      ],
      [
        "Ġt",
        "h"
      ],
      [
        "c",
        "t"
      ],
      [
        "ha",
        "t"
      ],
      [
        "Ġb",
        "e"
      ],
      [
        "Ġ",
        "y"
      ],
      [
        "Ġ",
        "l"
      ],
      [
        "Ġ",
        "is"
      ],
      [
        "i",
        "c"
      ],
      [
        "a",
        "s"
      ],
      [
        "Ġ",
        "h"
      ],
      [
        "Ġy",
        "ou"
      ],
      [
        "o",
        "w"
      ],
      [
        "Ġ",
        "e"
      ],
      [
        "en",
        "t"
      ],
      [
        "i",
        "on"
      ],
      [
        "Ġ",
        "g"
      ],
      [
        "Ġ",
        "A"
      ],
      [
        "Ġ",
        "ha"
      ],
      [
        "a",
        "y"
      ],
      [
        "Ġ",
        "he"
      ],
      [
        "c",
        "e"
      ],
      [
        "s",
        "e"
      ],
      [
        "v",
        "er"
      ],
      [
        "u",
        "t"
      ],
      [
        "Ġf",
        "or"
      ],
      [
        "a",
        "l"
      ],
      [
        "s",
        "t"
      ],
      [
        "l",
        "d"
      ],
      [
        "_",
        ","
      ],
      [
        "i",
        "m"
      ],
      [
        "Ġ",
        "W"
      ],
      [
        "i",
        "ve"
      ],
      [
        "Ġa",
        "s"
      ],
      [
        "e",
        "ct"
      ],
      [
        "it",
        "h"
      ],
      [
        "Ġn",
        "ot"
      ],
      [
        "u",
        "r"
      ],
      [
        "Ġw",
        "e"
      ],
      [
        "i",
        "r"
      ],
      [
        "ĠT",
        "he"
      ],
      [
        "Ġt",
        "hat"
      ],
      [
        "Ġ",
        "re"
      ],
      [
        "Ġ",
        "us"
      ],
      [
        "or",
        "d"
      ],
      [
        "Ġm",
        "e"
      ],
      [
        "Ġ",
        "it"
      ],
      [
        "g",
        "h"
      ],
      [
        "l",
        "y"
      ],
      [
        "o",
        "d"
      ],
      [
        "Ġ",
        "S"
      ],
      [
        "he",
        "r"
      ],
      [
        "Ġw",
        "ith"
      ],
      [
        "Ġo",
        "r"
      ],
      [
        "e",
        "t"
      ],
      [
        "Ġs",
        "t"
      ],
      [
        "a",
        "m"
      ],
      [
        "i",
        "d"
      ],
      [
        "i",
        "f"
      ],
      [
        "i",
        "ll"
      ],
      [
        "Ġm",
        "y"
      ],
      [
        "j",
        "ect"
      ],
      [
        "Ġa",
        "re"
      ],
      [
        "a",
        "d"
      ],
      [
        "k",
        "e"
      ],
      [
        "c",
        "h"
      ],
      [
        "Ġw",
        "h"
      ],
      [
        "Ġs",
        "u"
      ],
      [
        "Ġc",
        "om"
      ],
      [
        "Ġa",
        "n"
      ],
      [
        "Ġp",
        "r"
      ],
      [
        "Ġ",
        "H"
      ],
      [
        "Ġha",
        "ve"
      ],
      [
        "l",
        "a"
      ],
      [
        "_",
        "."
      ],
      [
        "t",
        "er"
      ],
      [
        "ou",
        "ld"
      ],
      [
        "Ġo",
        "n"
      ],
      [
        "u",
        "n"
      ],
      [
        "Ġ",
        "C"
      ],
      [
        "ou",
        "n"
      ],
      [
        "Ġc",
        "on"
      ],
      [
        "'",
        "s"
      ],
      [
        "ic",
        "h"
      ],
      [
        "gh",
        "t"
      ],
      [
        "ver",
        "b"
      ],
      [
        "Ġa",
        "d"
      ],
      [
        "Ġ",
        "B"
      ],
      [
        "Ġs",
        "e"
      ],
      [
        "re",
        "s"
      ],
      [
        "es",
        "s"
      ],
      [
        "Ġ",
        "M"
      ],
      [
        "Ġe",
        "x"
      ],
      [
        "p",
        "le"
      ],
      [
        "r",
        "a"
      ],
      [
        "r",
        "i"
      ],
      [
        "Ġd",
        "e"
      ],
      [
        "Ġ",
        "P"
      ],
      [
        "o",
        "re"
      ],
      [
        "Ġ",
        "O"
      ],
      [
        "Ġth",
        "is"
      ],
      [
        "at",
        "e"
      ],
      [
        "p",
        "e"
      ],
      [
        "Ġb",
        "y"
      ],
      [
        "-",
        "-"
      ],
      [
        "u",
        "l"
      ],
      [
        "Ġyou",
        "r"
      ],
      [
        "Ġw",
        "ord"
      ],
      [
        "o",
        "s"
      ],
      [
        "Ġ",
        "k"
      ],
      [
        "ĠA",
        "nd"
      ],
      [
        "g",
        "e"
      ],
      [
        "Ġth",
        "ou"
      ],
      [
        "Ġs",
        "h"
      ],
      [
        "Ġ",
        "1"
      ],
      [
        "Ġh",
        "is"
      ],
      [
        "es",
        "t"
      ],
      [
        "E",
        "N"
      ],
      [
        "ar",
        "t"
      ],
      [
        "b",
        "ject"
      ],
      [
        "a",
        "ll"
      ],
      [
        "q",
        "u"
      ],
      [
        "Ġwh",
        "ich"
      ],
      [
        "Ġ",
        "F"
      ],
      [
        "i",
        "v"
      ],
      [
        "Ġs",
        "o"
      ],
      [
        "Ġ",
        "("
      ],
      [
        "Ġ",
        "+"
      ],
      [
        "om",
        "e"
      ],
      [
        "Ġw",
        "ill"
      ],
      [
        "I",
        "N"
      ],
      [
        "Ġ",
        "N"
      ],
      [
        "er",
        "s"
      ],
      [
        ".",
        "+"
      ],
      [
        "a",
        "in"
      ],
      [
        "Ġb",
        "ut"
      ],
      [
        "Ġd",
        "o"
      ],
      [
        "i",
        "l"
      ],
      [
        "Ġ",
        "E"
      ],
      [
        "Ġs",
        "ent"
      ],
      [
        "en",
        "ce"
      ],
      [
        "Ġh",
        "im"
      ],
      [
        "r",
        "o"
      ],
      [
        "Ġg",
        "o"
      ],
      [
        "Ġ",
        "le"
      ],
      [
        "r",
        "u"
      ],
      [
        "Ġ",
        "Y"
      ],
      [
        "'",
        "d"
      ],
      [
        "Ġn",
        "e"
      ],
      [
        "ou",
        "r"
      ],
      [
        "at",
        "ion"
      ],
      [
        "t",
        "h"
      ],
      [
        "I",
        "O"
      ],
      [
        "Ġ",
        "verb"
      ],
      [
        "Ġus",
        "ed"
      ],
      [
        "ha",
        "n"
      ],
      [
        "he",
        "n"
      ],
      [
        "a",
        "k"
      ],
      [
        "Ġ",
        "G"
      ],
      [
        "Ġ",
        "L"
      ],
      [
        "A",
        "R"
      ],
      [
        "â",
        "Ģ"
      ],
      [
        "ĠT",
        "h"
      ],
      [
        "an",
        "t"
      ],
      [
        "r",
        "om"
      ],
      [
        "Ġs",
        "ha"
      ],
      [
        "Ġw",
        "as"
      ],
      [
        "Ġ",
        "u"
      ],
      [
        "Ġ",
        "v"
      ],
      [
        "a",
        "ke"
      ],
      [
        "re",
        "d"
      ],
      [
        "Ġm",
        "ay"
      ],
      [
        "Ġn",
        "o"
      ],
      [
        "Ġa",
        "ll"
      ],
      [
        "i",
        "ght"
      ],
      [
        "c",
        "k"
      ],
      [
        "a",
        "nd"
      ],
      [
        "us",
        "t"
      ],
      [
        "b",
        "le"
      ],
      [
        "res",
        "s"
      ],
      [
        "Ġ",
        "R"
      ],
      [
        "Ġl",
        "o"
      ],
      [
        "as",
        "t"
      ],
      [
        "Ġo",
        "ur"
      ],
      [
        "o",
        "l"
      ],
      [
        "Ġword",
        "s"
      ],
      [
        "E",
        "R"
      ],
      [
        "ct",
        "ion"
      ],
      [
        "ou",
        "nd"
      ],
      [
        "Ġm",
        "an"
      ],
      [
        "Ġfor",
        "m"
      ],
      [
        "us",
        "e"
      ],
      [
        "on",
        "g"
      ],
      [
        "Ġ",
        "D"
      ],
      [
        "e",
        "m"
      ],
      [
        "ar",
        "d"
      ],
      [
        "Ġus",
        "e"
      ],
      [
        "i",
        "e"
      ],
      [
        "Ġa",
        "t"
      ],
      [
        "am",
        "e"
      ],
      [
        "Ġf",
        "rom"
      ],
      [
        "ĠH",
        "e"
      ],
      [
        "in",
        "d"
      ],
      [
        "Ġn",
        "oun"
      ],
      [
        "E",
        "S"
      ],
      [
        "ou",
        "s"
      ],
      [
        "o",
        "nd"
      ],
      [
        "e",
        "ll"
      ],
      [
        "Ġsh",
        "ould"
      ],
      [
        "t",
        "o"
      ],
      [
        "it",
        "ion"
      ],
      [
        "Ġ",
        "qu"
      ],
      [
        "Ġs",
        "pe"
      ],
      [
        "Ġa",
        "l"
      ],
      [
        "at",
        "ive"
      ],
      [
        "Ġc",
        "la"
      ],
      [
        "Ġon",
        "e"
      ],
      [
        "o",
        "k"
      ],
      [
        "in",
        "e"
      ],
      [
        "Ġsent",
        "ence"
      ],
      [
        "T",
        "he"
      ],
      [
        "U",
        "S"
      ],
      [
        "Ġthe",
        "y"
      ],
      [
        "Ġex",
        "p"
      ],
      [
        "Ġk",
        "n"
      ],
      [
        "Ġth",
        "y"
      ],
      [
        "is",
        "t"
      ],
      [
        "Ġsha",
        "ll"
      ],
      [
        "o",
        "st"
      ],
      [
        "o",
        "se"
      ],
      [
        "Ġ",
        "2"
      ],
      [
        "p",
        "p"
      ],
      [
        "Ġp",
        "art"
      ],
      [
        "Ġhe",
        "r"
      ],
      [
        "ĠT",
        "o"
      ],
      [
        "se",
        "l"
      ],
      [
        "t",
        "her"
      ],
      [
        "Ġc",
        "an"
      ],
      [
        "Ġu",
        "p"
      ],
      [
        "Ġ",
        "r"
      ],
      [
        "Ġm",
        "ore"
      ],
      [
        "Ġme",
        "an"
      ],
      [
        "on",
        "e"
      ],
      [
        "u",
        "m"
      ],
      [
        "Ġ",
        "un"
      ],
      [
        "is",
        "h"
      ],
      [
        "Ġw",
        "hat"
      ],
      [
        "w",
        "e"
      ],
      [
        "Ġad",
        "ject"
      ],
      [
        "iv",
        "es"
      ],
      [
        "ĠW",
        "h"
      ],
      [
        "Ġ",
        "'"
      ],
      [
        "Ġf",
        "a"
      ],
      [
        "ĠF",
        "or"
      ],
      [
        "i",
        "g"
      ],
      [
        "as",
        "e"
      ],
      [
        "i",
        "re"
      ],
      [
        "r",
        "y"
      ],
      [
        "t",
        "e"
      ],
      [
        "Ġf",
        "o"
      ],
      [
        "r",
        "ow"
      ],
      [
        "u",
        "re"
      ],
      [
        "Ġs",
        "ay"
      ],
      [
        "c",
        "i"
      ],
      [
        "IN",
        "G"
      ],
      [
        "Ġl",
        "i"
      ],
      [
        "ĠI",
        "n"
      ],
      [
        "O",
        "R"
      ],
      [
        "ĠW",
        "e"
      ],
      [
        "Ġw",
        "or"
      ],
      [
        "Ġw",
        "ould"
      ],
      [
        "ver",
        "y"
      ],
      [
        "c",
        "es"
      ],
      [
        "Ġo",
        "bject"
      ],
      [
        "Ġthe",
        "se"
      ],
      [
        "Ġ",
        "if"
      ],
      [
        "it",
        "y"
      ],
      [
        "Ġthe",
        "ir"
      ],
      [
        "Ġthe",
        "m"
      ],
      [
        "m",
        "ent"
      ],
      [
        "re",
        "n"
      ],
      [
        "or",
        "t"
      ],
      [
        "ot",
        "h"
      ],
      [
        "Ġsu",
        "bject"
      ],
      [
        "os",
        "s"
      ],
      [
        "Ġa",
        "m"
      ],
      [
        "as",
        "s"
      ],
      [
        "Ġgo",
        "od"
      ],
      [
        "on",
        "oun"
      ],
      [
        "he",
        "re"
      ],
      [
        "Ġse",
        "e"
      ],
      [
        "p",
        "t"
      ],
      [
        "Ġ",
        "V"
      ],
      [
        "Ġexp",
        "ress"
      ],
      [
        "Ġthe",
        "re"
      ],
      [
        "Ġthe",
        "e"
      ],
      [
        "Ġp",
        "re"
      ],
      [
        "p",
        "er"
      ],
      [
        "Ġm",
        "od"
      ],
      [
        "im",
        "e"
      ],
      [
        "ĠB",
        "ut"
      ],
      [
        "ot",
        "her"
      ],
      [
        "ir",
        "st"
      ],
      [
        "Ġpr",
        "o"
      ],
      [
        "Ġa",
        "b"
      ],
      [
        "i",
        "es"
      ],
      [
        "Ġt",
        "han"
      ],
      [
        "U",
        "C"
      ],
      [
        "a",
        "re"
      ],
      [
        "ar",
        "y"
      ],
      [
        "re",
        "at"
      ],
      [
        "e",
        "ar"
      ],
      [
        "f",
        "ore"
      ],
      [
        "Ġa",
        "r"
      ],
      [
        "Ġle",
        "t"
      ],
      [
        "Ġw",
        "hen"
      ],
      [
        "ĠY",
        "ou"
      ],
      [
        "Ġs",
        "a"
      ],
      [
        "ĠT",
        "hat"
      ],
      [
        "Ġkn",
        "ow"
      ],
      [
        "e",
        "l"
      ],
      [
        "A",
        "N"
      ],
      [
        "a",
        "ge"
      ],
      [
        "ic",
        "e"
      ],
      [
        "Ġc",
        "all"
      ],
      [
        "l",
        "o"
      ],
      [
        "Ġt",
        "w"
      ],
      [
        "Ġpr",
        "onoun"
      ],
      [
        "Ġad",
        "verb"
      ],
      [
        "e",
        "nd"
      ],
      [
        "I",
        "C"
      ],
      [
        "Ġha",
        "d"
      ],
      [
        "h",
        "r"
      ],
      [
        "ou",
        "t"
      ],
      [
        "sel",
        "f"
      ],
      [
        "n",
        "g"
      ],
      [
        "u",
        "d"
      ],
      [
        "b",
        "er"
      ],
      [
        "id",
        "e"
      ],
      [
        "Ġcom",
        "p"
      ],
      [
        "Ġo",
        "ther"
      ],
      [
        "E",
        "T"
      ],
      [
        "Ġwe",
        "re"
      ],
      [
        "ers",
        "on"
      ],
      [
        "c",
        "ed"
      ],
      [
        "Ġmod",
        "if"
      ],
      [
        "Ġs",
        "ome"
      ],
      [
        "Ġin",
        "d"
      ],
      [
        "Ġbe",
        "en"
      ],
      [
        "v",
        "en"
      ],
      [
        "O",
        "N"
      ],
      [
        "Ġ",
        "j"
      ],
      [
        "ĠW",
        "hat"
      ],
      [
        "Ġ",
        "\""
      ],
      [
        "Ġs",
        "he"
      ],
      [
        "ĠI",
        "t"
      ],
      [
        "f",
        "in"
      ],
      [
        "Ġs",
        "p"
      ],
      [
        "Ġb",
        "o"
      ],
      [
        "re",
        "e"
      ],
      [
        "it",
        "t"
      ],
      [
        "Ġb",
        "r"
      ],
      [
        "os",
        "ition"
      ],
      [
        "Ġw",
        "r"
      ],
      [
        "in",
        "k"
      ],
      [
        "Ġex",
        "am"
      ],
      [
        "ll",
        "ow"
      ],
      [
        "ic",
        "ate"
      ],
      [
        "Ġn",
        "ow"
      ],
      [
        "Ġcla",
        "use"
      ],
      [
        "Ġ",
        "3"
      ],
      [
        "Ġt",
        "ime"
      ],
      [
        "Ġcom",
        "m"
      ],
      [
        "Ġtw",
        "o"
      ],
      [
        "l",
        "es"
      ],
      [
        "ing",
        "s"
      ],
      [
        "at",
        "her"
      ],
      [
        "Ġl",
        "ord"
      ],
      [
        "Ġc",
        "l"
      ],
      [
        "Ġli",
        "ke"
      ],
      [
        "a",
        "g"
      ],
      [
        "'",
        "ll"
      ],
      [
        "e",
        "p"
      ],
      [
        "ad",
        "e"
      ],
      [
        "Ġm",
        "ake"
      ],
      [
        "f",
        "f"
      ],
      [
        "Ġm",
        "ust"
      ],
      [
        "at",
        "h"
      ],
      [
        "en",
        "ces"
      ],
      [
        "Ġp",
        "erson"
      ],
      [
        "Ġfo",
        "llow"
      ],
      [
        "Ġ",
        "["
      ],
      [
        "it",
        "her"
      ],
      [
        "Ġha",
        "s"
      ],
      [
        "Ġp",
        "l"
      ],
      [
        "Ġcom",
        "e"
      ],
      [
        "K",
        "ING"
      ],
      [
        "c",
        "c"
      ],
      [
        "Ġhe",
        "re"
      ],
      [
        "Ġsu",
        "b"
      ],
      [
        "Ġsu",
        "ch"
      ],
      [
        "Ġthe",
        "n"
      ],
      [
        "if",
        "e"
      ],
      [
        "e",
        "c"
      ],
      [
        "Ġa",
        "g"
      ],
      [
        "f",
        "ul"
      ],
      [
        "ĠI",
        "f"
      ],
      [
        "Ġd",
        "es"
      ],
      [
        "Ġcom",
        "ple"
      ],
      [
        "Ġ",
        "hat"
      ],
      [
        "an",
        "g"
      ],
      [
        "Ġ",
        "en"
      ],
      [
        "w",
        "h"
      ],
      [
        "Ġp",
        "la"
      ],
      [
        "Ġp",
        "hr"
      ],
      [
        "ĠM",
        "y"
      ],
      [
        "a",
        "ch"
      ],
      [
        "s",
        "o"
      ],
      [
        "Ġd",
        "is"
      ],
      [
        "ic",
        "i"
      ],
      [
        "all",
        "y"
      ],
      [
        "Ġh",
        "ow"
      ],
      [
        "ion",
        "s"
      ],
      [
        "t",
        "he"
      ],
      [
        "w",
        "ay"
      ],
      [
        "red",
        "icate"
      ],
      [
        "ĠA",
        "s"
      ],
      [
        "f",
        "e"
      ],
      [
        "i",
        "ed"
      ],
      [
        "Ġ",
        "im"
      ],
      [
        "Ġs",
        "ir"
      ],
      [
        ")",
        "."
      ],
      [
        "Ġc",
        "h"
      ],
      [
        "Ġwe",
        "ll"
      ],
      [
        "Ġadject",
        "ive"
      ],
      [
        "a",
        "ble"
      ],
      [
        "T",
        "IO"
      ],
      [
        "m",
        "an"
      ],
      [
        "Ġg",
        "r"
      ],
      [
        "Ġsent",
        "ences"
      ],
      [
        "Ġexam",
        "ple"
      ],
      [
        "L",
        "O"
      ],
      [
        "u",
        "ch"
      ],
      [
        "Ġo",
        "ut"
      ],
      [
        "Ġc",
        "o"
      ],
      [
        "Ġspe",
        "ak"
      ],
      [
        "it",
        "e"
      ],
      [
        "ul",
        "ar"
      ],
      [
        "us",
        "es"
      ],
      [
        "v",
        "es"
      ],
      [
        "ou",
        "gh"
      ],
      [
        "ig",
        "n"
      ],
      [
        ",",
        "--"
      ],
      [
        "a",
        "ve"
      ],
      [
        "res",
        "ent"
      ],
      [
        "Ġwh",
        "o"
      ],
      [
        "âĢ",
        "ľ"
      ],
      [
        "âĢ",
        "Ŀ"
      ],
      [
        "t",
        "ain"
      ],
      [
        "ĠTh",
        "is"
      ],
      [
        "it",
        "ive"
      ],
      [
        "Ġup",
        "on"
      ],
      [
        "Ġan",
        "y"
      ],
      [
        "Ġp",
        "o"
      ],
      [
        "L",
        "I"
      ],
      [
        "AR",
        "D"
      ],
      [
        "L",
        "A"
      ],
      [
        "u",
        "e"
      ],
      [
        "Ġit",
        "s"
      ],
      [
        "is",
        "e"
      ],
      [
        "j",
        "un"
      ],
      [
        "an",
        "ce"
      ],
      [
        "O",
        "M"
      ],
      [
        "Ġnoun",
        "s"
      ],
      [
        "b",
        "e"
      ],
      [
        ".",
        "--"
      ],
      [
        "I",
        "US"
      ],
      [
        "Ġp",
        "er"
      ],
      [
        "Ġlo",
        "ve"
      ],
      [
        "Ġcall",
        "ed"
      ],
      [
        "ic",
        "k"
      ],
      [
        "t",
        "en"
      ],
      [
        "w",
        "n"
      ],
      [
        "Ġk",
        "ing"
      ],
      [
        "a",
        "p"
      ],
      [
        "Ġ",
        "J"
      ],
      [
        "o",
        "od"
      ],
      [
        "Ġd",
        "id"
      ],
      [
        "Ġf",
        "irst"
      ],
      [
        "Ġs",
        "im"
      ],
      [
        "ow",
        "n"
      ],
      [
        "Ġt",
        "r"
      ],
      [
        "Ġbe",
        "t"
      ],
      [
        "Ġm",
        "ar"
      ],
      [
        "i",
        "z"
      ],
      [
        "Ġm",
        "ade"
      ],
      [
        "Ġp",
        "redicate"
      ],
      [
        "nd",
        "er"
      ],
      [
        "ha",
        "r"
      ],
      [
        "Ġm",
        "ost"
      ],
      [
        "n",
        "ot"
      ],
      [
        "Ġverb",
        "s"
      ],
      [
        "a",
        "b"
      ],
      [
        "Ġ",
        "âĢľ"
      ],
      [
        "Ġ",
        "U"
      ],
      [
        "Ġcon",
        "s"
      ],
      [
        "ire",
        "ct"
      ],
      [
        "Ġcla",
        "uses"
      ],
      [
        "L",
        "E"
      ],
      [
        "ĠS",
        "o"
      ],
      [
        "p",
        "osition"
      ],
      [
        "i",
        "al"
      ],
      [
        "i",
        "ld"
      ],
      [
        "w",
        "ard"
      ],
      [
        "om",
        "et"
      ],
      [
        "ĠE",
        "ng"
      ],
      [
        "Ġh",
        "o"
      ],
      [
        "Ġw",
        "ay"
      ],
      [
        "ur",
        "al"
      ],
      [
        "a",
        "use"
      ],
      [
        "ĠThe",
        "y"
      ],
      [
        "ĠO",
        "F"
      ],
      [
        "f",
        "or"
      ],
      [
        "t",
        "c"
      ],
      [
        "Ġf",
        "ri"
      ],
      [
        "in",
        "ce"
      ],
      [
        "K",
        "E"
      ],
      [
        "Ġbe",
        "g"
      ],
      [
        "Ġadject",
        "ives"
      ],
      [
        "Ġad",
        "d"
      ],
      [
        "Ġd",
        "ay"
      ],
      [
        "l",
        "ess"
      ],
      [
        "n",
        "ess"
      ],
      [
        "in",
        "t"
      ],
      [
        "Ġg",
        "reat"
      ],
      [
        "Ġf",
        "e"
      ],
      [
        "Ġre",
        "l"
      ],
      [
        "Ġmean",
        "ing"
      ],
      [
        "Ġthou",
        "ght"
      ],
      [
        "f",
        "ter"
      ],
      [
        "Ġp",
        "e"
      ],
      [
        ".",
        ";"
      ],
      [
        "Ġe",
        "nd"
      ],
      [
        "T",
        "I"
      ],
      [
        "Ġof",
        "f"
      ],
      [
        "Ġg",
        "ra"
      ],
      [
        "v",
        "ed"
      ],
      [
        "Ġhat",
        "h"
      ],
      [
        "e",
        "ch"
      ],
      [
        "h",
        "ing"
      ],
      [
        "en",
        "se"
      ],
      [
        "Ġha",
        "nd"
      ],
      [
        "Ġ",
        "very"
      ],
      [
        "Ġal",
        "so"
      ],
      [
        "O",
        "L"
      ],
      [
        "Ġon",
        "ly"
      ],
      [
        "E",
        "L"
      ],
      [
        "Ġd",
        "if"
      ],
      [
        "Ġto",
        "o"
      ],
      [
        "Ġb",
        "oth"
      ],
      [
        "Ġm",
        "en"
      ],
      [
        "c",
        "l"
      ],
      [
        "Ġne",
        "ver"
      ],
      [
        "Ġe",
        "tc"
      ],
      [
        "or",
        "n"
      ],
      [
        "l",
        "ish"
      ],
      [
        "Ġth",
        "ink"
      ],
      [
        "Ġag",
        "ain"
      ],
      [
        "or",
        "y"
      ],
      [
        "Ġf",
        "ather"
      ],
      [
        "Ġ",
        "4"
      ],
      [
        "he",
        "d"
      ],
      [
        "Ġp",
        "oss"
      ],
      [
        "Ġbe",
        "fore"
      ],
      [
        "Ġt",
        "ake"
      ],
      [
        "Ġc",
        "han"
      ],
      [
        "Ġn",
        "ame"
      ],
      [
        "Ġs",
        "ame"
      ],
      [
        "c",
        "om"
      ],
      [
        "Ġt",
        "ell"
      ],
      [
        "im",
        "es"
      ],
      [
        "Ġwor",
        "k"
      ],
      [
        ".",
        "_"
      ],
      [
        "d",
        "ay"
      ],
      [
        "Â",
        "§"
      ],
      [
        "e",
        "ver"
      ],
      [
        "ĠThe",
        "re"
      ],
      [
        "ĠC",
        "om"
      ],
      [
        "v",
        "ing"
      ],
      [
        "ction",
        "s"
      ],
      [
        "Ġqu",
        "est"
      ],
      [
        "Ġmean",
        "s"
      ],
      [
        "Ġ",
        "ro"
      ],
      [
        "'",
        "t"
      ],
      [
        ".",
        "."
      ],
      [
        "t",
        "hat"
      ],
      [
        "Ġs",
        "omet"
      ],
      [
        "Ġl",
        "ife"
      ],
      [
        "as",
        "es"
      ],
      [
        "T",
        "ER"
      ],
      [
        "u",
        "ll"
      ],
      [
        "in",
        "ate"
      ],
      [
        "Ġs",
        "ing"
      ],
      [
        "Ġw",
        "here"
      ],
      [
        "Ġar",
        "t"
      ],
      [
        "Ġm",
        "uch"
      ],
      [
        "i",
        "le"
      ],
      [
        "fe",
        "ren"
      ],
      [
        "s",
        "h"
      ],
      [
        "Ġy",
        "et"
      ],
      [
        "Ġg",
        "ive"
      ],
      [
        "I",
        "n"
      ],
      [
        "Ġt",
        "ru"
      ],
      [
        "Ġa",
        "pp"
      ],
      [
        "Ġp",
        "resent"
      ],
      [
        "Ġre",
        "m"
      ],
      [
        "ĠW",
        "ith"
      ],
      [
        "Ġst",
        "ru"
      ],
      [
        "Ġfri",
        "end"
      ],
      [
        "Ġde",
        "ath"
      ],
      [
        "ent",
        "le"
      ],
      [
        "T",
        "H"
      ],
      [
        "Ġa",
        "cc"
      ],
      [
        "Ġim",
        "p"
      ],
      [
        "Ġlo",
        "ok"
      ],
      [
        "ĠD",
        "o"
      ],
      [
        "Ġs",
        "er"
      ],
      [
        "um",
        "ber"
      ],
      [
        "ĠA",
        "n"
      ],
      [
        "Ġst",
        "ud"
      ],
      [
        "ĠW",
        "hen"
      ],
      [
        "ĠEng",
        "lish"
      ],
      [
        "ur",
        "n"
      ],
      [
        "Ġof",
        "ten"
      ],
      [
        "Ġlet",
        "ter"
      ],
      [
        "Ġpla",
        "ce"
      ],
      [
        "a",
        "ck"
      ],
      [
        "Ġphr",
        "ase"
      ],
      [
        "Ġp",
        "ast"
      ],
      [
        "Ġhe",
        "art"
      ],
      [
        "âĢ",
        "Ļ"
      ],
      [
        "C",
        "A"
      ],
      [
        "Ġs",
        "we"
      ],
      [
        "Ġo",
        "wn"
      ],
      [
        "ul",
        "t"
      ],
      [
        "Ġform",
        "s"
      ],
      [
        "st",
        "ru"
      ],
      [
        "Ġcon",
        "jun"
      ],
      [
        "i",
        "o"
      ],
      [
        "Ġpronoun",
        "s"
      ],
      [
        "p",
        "h"
      ],
      [
        "Ġ",
        "K"
      ],
      [
        "Ġbe",
        "ing"
      ],
      [
        "ad",
        "y"
      ],
      [
        "Ġcomm",
        "on"
      ],
      [
        "Ġcon",
        "t"
      ],
      [
        "Ġman",
        "y"
      ],
      [
        "Ġpre",
        "position"
      ],
      [
        "ang",
        "u"
      ],
      [
        "p",
        "s"
      ],
      [
        "Ġre",
        "p"
      ],
      [
        "k",
        "s"
      ],
      [
        "Ġf",
        "ind"
      ],
      [
        "as",
        "ter"
      ],
      [
        "ow",
        "er"
      ],
      [
        ".",
        ","
      ],
      [
        "a",
        "u"
      ],
      [
        "i",
        "x"
      ],
      [
        "row",
        "n"
      ],
      [
        "Ġa",
        "fter"
      ],
      [
        "Ġst",
        "and"
      ],
      [
        "Ġ",
        "ra"
      ],
      [
        "ot",
        "e"
      ],
      [
        "is",
        "s"
      ],
      [
        ".",
        "]"
      ],
      [
        "ĠH",
        "ow"
      ],
      [
        "Ġpart",
        "ici"
      ],
      [
        "Ġh",
        "on"
      ],
      [
        "IC",
        "H"
      ],
      [
        "Ġhe",
        "ar"
      ],
      [
        "I",
        "S"
      ],
      [
        "Ġin",
        "to"
      ],
      [
        "Ġne",
        "w"
      ],
      [
        "Ġsim",
        "ple"
      ],
      [
        "i",
        "er"
      ],
      [
        "Ġf",
        "f"
      ],
      [
        "an",
        "s"
      ],
      [
        "IN",
        "C"
      ],
      [
        "Ġse",
        "en"
      ],
      [
        "Ġfollow",
        "ing"
      ],
      [
        "T",
        "h"
      ],
      [
        "i",
        "ous"
      ],
      [
        "Ġl",
        "angu"
      ],
      [
        "Ġe",
        "very"
      ],
      [
        "ĠN",
        "o"
      ],
      [
        "+",
        ","
      ],
      [
        "D",
        "U"
      ],
      [
        "I",
        "I"
      ],
      [
        "he",
        "s"
      ],
      [
        "ak",
        "es"
      ],
      [
        "DU",
        "KE"
      ],
      [
        "Ġcan",
        "not"
      ],
      [
        "Ġs",
        "on"
      ],
      [
        "en",
        "s"
      ],
      [
        "Ġbr",
        "other"
      ],
      [
        "e",
        "e"
      ],
      [
        "Ġm",
        "ine"
      ],
      [
        "Ġbe",
        "c"
      ],
      [
        "Ġl",
        "ong"
      ],
      [
        "ĠTh",
        "ou"
      ],
      [
        "Ġu",
        "nder"
      ],
      [
        "_",
        ";"
      ],
      [
        "o",
        "f"
      ],
      [
        "t",
        "y"
      ],
      [
        "Ġo",
        "ld"
      ],
      [
        "Ġcl",
        "ass"
      ],
      [
        "A",
        "S"
      ],
      [
        "l",
        "i"
      ],
      [
        "Ġth",
        "ing"
      ],
      [
        "Ġse",
        "c"
      ],
      [
        "ĠWh",
        "ich"
      ],
      [
        "ar",
        "s"
      ],
      [
        "at",
        "ed"
      ],
      [
        "ICH",
        "ARD"
      ],
      [
        "Ġposs",
        "ess"
      ],
      [
        "EN",
        "TIO"
      ],
      [
        "lo",
        "od"
      ],
      [
        "ĠWh",
        "y"
      ],
      [
        "Ġst",
        "ate"
      ],
      [
        "ir",
        "d"
      ],
      [
        "Ġsh",
        "ow"
      ],
      [
        "Ġ(",
        "_"
      ],
      [
        "Ġab",
        "out"
      ],
      [
        "E",
        "C"
      ],
      [
        "i",
        "gh"
      ],
      [
        "Ġe",
        "y"
      ],
      [
        "fin",
        "itive"
      ],
      [
        "Ġl",
        "ess"
      ],
      [
        "pe",
        "nd"
      ],
      [
        "A",
        "U"
      ],
      [
        "_",
        ")"
      ],
      [
        "a",
        "c"
      ],
      [
        "Ġhe",
        "a"
      ],
      [
        "n",
        "ect"
      ],
      [
        "ĠB",
        "y"
      ],
      [
        "Ġm",
        "ight"
      ],
      [
        "ĠG",
        "od"
      ],
      [
        "Ġspe",
        "ech"
      ],
      [
        "Ġsa",
        "id"
      ],
      [
        "ic",
        "al"
      ],
      [
        "Ġlangu",
        "age"
      ],
      [
        "ou",
        "se"
      ],
      [
        "Ġcon",
        "f"
      ],
      [
        "Ġp",
        "ass"
      ],
      [
        "Ġor",
        "d"
      ],
      [
        "Ġj",
        "o"
      ],
      [
        "Ġbo",
        "ok"
      ],
      [
        "Ġdif",
        "feren"
      ],
      [
        "Ġ",
        "6"
      ],
      [
        "ord",
        "inate"
      ],
      [
        "O",
        "T"
      ],
      [
        "ĠY",
        "our"
      ],
      [
        "A",
        "B"
      ],
      [
        "Ġbe",
        "l"
      ],
      [
        "Ġ",
        "5"
      ],
      [
        "Ġ",
        "ri"
      ],
      [
        "Ġs",
        "ound"
      ],
      [
        "ha",
        "ll"
      ],
      [
        "Ġf",
        "l"
      ],
      [
        "p",
        "les"
      ],
      [
        "Ġth",
        "ings"
      ],
      [
        "Ġstru",
        "ck"
      ],
      [
        "Ġa",
        "ction"
      ],
      [
        "Ġb",
        "lood"
      ],
      [
        "Ġcon",
        "nect"
      ],
      [
        "n",
        "ing"
      ],
      [
        "Ġb",
        "l"
      ],
      [
        "Ġk",
        "ind"
      ],
      [
        "ĠI",
        "s"
      ],
      [
        "ĠO",
        "f"
      ],
      [
        "Ġpl",
        "ural"
      ],
      [
        "Ġs",
        "w"
      ],
      [
        "Ġe",
        "m"
      ],
      [
        ".",
        "\""
      ],
      [
        "Ġn",
        "or"
      ],
      [
        "Ġth",
        "ose"
      ],
      [
        "Ġadverb",
        "s"
      ],
      [
        "f",
        "ect"
      ],
      [
        "Ġc",
        "ase"
      ],
      [
        "ĠB",
        "e"
      ],
      [
        "m",
        "s"
      ],
      [
        "ou",
        "l"
      ],
      [
        "or",
        "s"
      ],
      [
        "Ġp",
        "le"
      ],
      [
        "al",
        "k"
      ],
      [
        "c",
        "ri"
      ],
      [
        "Ġst",
        "r"
      ],
      [
        "F",
        "irst"
      ],
      [
        "Ġs",
        "y"
      ],
      [
        "Ġc",
        "or"
      ],
      [
        "U",
        "E"
      ],
      [
        "V",
        "E"
      ],
      [
        "Ġ",
        "ke"
      ],
      [
        "itt",
        "le"
      ],
      [
        "Ġtru",
        "e"
      ],
      [
        "Ġ",
        "{"
      ],
      [
        "Ġw",
        "ar"
      ],
      [
        "Ġc",
        "oun"
      ],
      [
        "Ġe",
        "ach"
      ],
      [
        "en",
        "er"
      ],
      [
        "Ġn",
        "umber"
      ],
      [
        "Ġin",
        "t"
      ],
      [
        "ct",
        "ive"
      ],
      [
        "y",
        "s"
      ],
      [
        "Ġc",
        "ould"
      ],
      [
        "l",
        "p"
      ],
      [
        "ou",
        "ght"
      ],
      [
        "is",
        "on"
      ],
      [
        "ut",
        "e"
      ],
      [
        "at",
        "ter"
      ],
      [
        "o",
        "ve"
      ],
      [
        "way",
        "s"
      ],
      [
        "U",
        "M"
      ],
      [
        "a",
        "w"
      ],
      [
        "a",
        "ce"
      ],
      [
        "ut",
        "h"
      ],
      [
        "st",
        "ant"
      ],
      [
        "ĠR",
        "ICHARD"
      ],
      [
        "Ġg",
        "entle"
      ],
      [
        "ĠW",
        "here"
      ],
      [
        "Ġwor",
        "ld"
      ],
      [
        "Ġcomp",
        "ound"
      ],
      [
        "Ġs",
        "c"
      ],
      [
        "or",
        "row"
      ],
      [
        "Ġth",
        "us"
      ],
      [
        "ĠC",
        "ome"
      ],
      [
        "UC",
        "H"
      ],
      [
        "S",
        "ec"
      ],
      [
        "i",
        "ly"
      ],
      [
        "i",
        "ers"
      ],
      [
        "on",
        "s"
      ],
      [
        "Ġd",
        "ist"
      ],
      [
        "Ġre",
        "s"
      ],
      [
        "Ġbeg",
        "in"
      ],
      [
        "Ġre",
        "st"
      ],
      [
        "e",
        "f"
      ],
      [
        "om",
        "in"
      ],
      [
        "G",
        "LO"
      ],
      [
        "H",
        "e"
      ],
      [
        "R",
        "E"
      ],
      [
        "R",
        "Y"
      ],
      [
        "Ġhe",
        "ad"
      ],
      [
        "ur",
        "p"
      ],
      [
        "Ġwith",
        "out"
      ],
      [
        "ĠM",
        "ar"
      ],
      [
        "ce",
        "pt"
      ],
      [
        "ES",
        "TER"
      ],
      [
        "UC",
        "ESTER"
      ],
      [
        "GLO",
        "UCESTER"
      ],
      [
        "Ġ",
        "ent"
      ],
      [
        "Ġl",
        "ittle"
      ],
      [
        "Ġpartici",
        "ple"
      ],
      [
        "ĠN",
        "ow"
      ],
      [
        "Ġch",
        "ild"
      ],
      [
        "n",
        "e"
      ],
      [
        "Ġf",
        "ear"
      ],
      [
        "m",
        "e"
      ],
      [
        "Ġd",
        "one"
      ],
      [
        "t",
        "is"
      ],
      [
        "Ġd",
        "own"
      ],
      [
        "at",
        "es"
      ],
      [
        "ĠR",
        "ome"
      ],
      [
        "i",
        "p"
      ],
      [
        "s",
        "w"
      ],
      [
        "o",
        "ld"
      ],
      [
        "er",
        "t"
      ],
      [
        "Ġre",
        "g"
      ],
      [
        "ation",
        "s"
      ],
      [
        "L",
        "AN"
      ],
      [
        "Ġd",
        "en"
      ],
      [
        "Ġre",
        "ad"
      ],
      [
        "Ġcon",
        "stru"
      ],
      [
        "Ġne",
        "ed"
      ],
      [
        "R",
        "O"
      ],
      [
        "o",
        "ple"
      ],
      [
        "Ġc",
        "are"
      ],
      [
        "at",
        "ch"
      ],
      [
        "Ġan",
        "other"
      ],
      [
        "f",
        "er"
      ],
      [
        "g",
        "et"
      ],
      [
        "Ġf",
        "ound"
      ],
      [
        "Ġha",
        "st"
      ],
      [
        "Ġth",
        "r"
      ],
      [
        "ĠTh",
        "us"
      ],
      [
        "Q",
        "UE"
      ],
      [
        "l",
        "ed"
      ],
      [
        "u",
        "b"
      ],
      [
        "Ġin",
        "finitive"
      ],
      [
        "ĠS",
        "ee"
      ],
      [
        "ĠE",
        "d"
      ],
      [
        "INC",
        "ENTIO"
      ],
      [
        "QUE",
        "EN"
      ],
      [
        "g",
        "ed"
      ],
      [
        "Ġstud",
        "y"
      ],
      [
        "Ġ",
        "ru"
      ],
      [
        "ar",
        "n"
      ],
      [
        "Ġth",
        "ree"
      ],
      [
        "ĠS",
        "t"
      ],
      [
        "Ġal",
        "ways"
      ],
      [
        "Ġc",
        "ond"
      ],
      [
        "Ġ(",
        "Â§"
      ],
      [
        "Ġind",
        "e"
      ],
      [
        "Ġbet",
        "ter"
      ],
      [
        "Ġst",
        "ill"
      ],
      [
        "ĠO",
        "r"
      ],
      [
        "A",
        "L"
      ],
      [
        "Ġt",
        "ra"
      ],
      [
        "ro",
        "g"
      ],
      [
        "Ġmodif",
        "y"
      ],
      [
        "Ġphr",
        "ases"
      ],
      [
        "Ġdis",
        "c"
      ],
      [
        "Ġin",
        "ter"
      ],
      [
        "Ġhe",
        "lp"
      ],
      [
        "Ġ1",
        "0"
      ],
      [
        "A",
        "M"
      ],
      [
        "er",
        "c"
      ],
      [
        "or",
        "k"
      ],
      [
        "Ġdo",
        "es"
      ],
      [
        "ĠHe",
        "re"
      ],
      [
        "ear",
        "s"
      ],
      [
        "Ġs",
        "et"
      ],
      [
        "Ġp",
        "a"
      ],
      [
        "Ġe",
        "ver"
      ],
      [
        "ĠA",
        "d"
      ],
      [
        "Ġwr",
        "it"
      ],
      [
        "re",
        "ct"
      ],
      [
        "la",
        "nd"
      ],
      [
        "ment",
        "s"
      ],
      [
        "f",
        "t"
      ],
      [
        "Ġs",
        "ense"
      ],
      [
        "Ġl",
        "ast"
      ],
      [
        "od",
        "u"
      ],
      [
        "am",
        "m"
      ],
      [
        "Ġcomple",
        "te"
      ],
      [
        "Ġ",
        "|"
      ],
      [
        "er",
        "tain"
      ],
      [
        "ĠThe",
        "se"
      ],
      [
        "Ġv",
        "o"
      ],
      [
        "E",
        "O"
      ],
      [
        "Ġg",
        "l"
      ],
      [
        "Ġg",
        "ener"
      ],
      [
        "Ġha",
        "r"
      ],
      [
        "EN",
        "RY"
      ],
      [
        "ĠL",
        "et"
      ],
      [
        "we",
        "en"
      ],
      [
        "Ġfa",
        "ir"
      ],
      [
        "omin",
        "ative"
      ],
      [
        "c",
        "ess"
      ],
      [
        "+",
        "."
      ],
      [
        "Ġ1",
        "1"
      ],
      [
        "Ġpe",
        "ople"
      ],
      [
        "d",
        "e"
      ],
      [
        "Ġswe",
        "et"
      ],
      [
        "Ġsec",
        "ond"
      ],
      [
        "Ġp",
        "ower"
      ],
      [
        "ĠT",
        "H"
      ],
      [
        "ur",
        "se"
      ],
      [
        "Ġbe",
        "ar"
      ],
      [
        "Ġa",
        "p"
      ],
      [
        "U",
        "N"
      ],
      [
        "il",
        "t"
      ],
      [
        "Ġsomet",
        "imes"
      ],
      [
        "u",
        "ke"
      ],
      [
        "Ġas",
        "s"
      ],
      [
        "EN",
        "S"
      ],
      [
        "ES",
        "S"
      ],
      [
        "Ġc",
        "ame"
      ],
      [
        "Ġp",
        "ar"
      ],
      [
        "Ġn",
        "ight"
      ],
      [
        "ĠV",
        "INCENTIO"
      ],
      [
        "Ġc",
        "our"
      ],
      [
        "Ġh",
        "ouse"
      ],
      [
        "EN",
        "C"
      ],
      [
        "for",
        "m"
      ],
      [
        "Ġhon",
        "our"
      ],
      [
        "M",
        "EN"
      ],
      [
        "OR",
        "K"
      ],
      [
        "Ġdes",
        "cri"
      ],
      [
        "it",
        "s"
      ],
      [
        "Ġd",
        "ou"
      ],
      [
        "ĠP",
        "r"
      ],
      [
        "Ġpro",
        "per"
      ],
      [
        "Ġquest",
        "ion"
      ],
      [
        "b",
        "s"
      ],
      [
        "Ġse",
        "em"
      ],
      [
        "Ġw",
        "om"
      ],
      [
        "Ġb",
        "est"
      ],
      [
        "Ġl",
        "ive"
      ],
      [
        "ĠThe",
        "n"
      ],
      [
        "Ġ",
        "8"
      ],
      [
        "Ġp",
        "ut"
      ],
      [
        "Ġnot",
        "hing"
      ],
      [
        "gh",
        "ter"
      ],
      [
        "Ġa",
        "way"
      ],
      [
        "in",
        "ed"
      ],
      [
        "Ġn",
        "at"
      ],
      [
        "Ġpr",
        "ay"
      ],
      [
        "A",
        "P"
      ],
      [
        "a",
        "ct"
      ],
      [
        "t",
        "ed"
      ],
      [
        "Ġe",
        "ither"
      ],
      [
        "Ġcom",
        "es"
      ],
      [
        "iv",
        "ed"
      ],
      [
        "Ġj",
        "ust"
      ],
      [
        "Ġdifferen",
        "t"
      ],
      [
        "IN",
        "IUS"
      ],
      [
        "ĠL",
        "ord"
      ],
      [
        "n",
        "ce"
      ],
      [
        "Ġo",
        "ver"
      ],
      [
        "Ġc",
        "ha"
      ],
      [
        "sel",
        "ves"
      ],
      [
        "Ġhea",
        "ven"
      ],
      [
        ":",
        "--"
      ],
      [
        "U",
        "L"
      ],
      [
        "p",
        "ar"
      ],
      [
        "Ġno",
        "ble"
      ],
      [
        "ĠU",
        "n"
      ],
      [
        "Ġrel",
        "ative"
      ],
      [
        "o",
        "h"
      ],
      [
        "Ġs",
        "m"
      ],
      [
        "Ġd",
        "oth"
      ],
      [
        "ĠN",
        "or"
      ],
      [
        "ĠG",
        "l"
      ],
      [
        "pend",
        "ent"
      ],
      [
        "D",
        "W"
      ],
      [
        "Ġd",
        "ie"
      ],
      [
        "ra",
        "ph"
      ],
      [
        "Ġde",
        "fin"
      ],
      [
        "Ġ1",
        "5"
      ],
      [
        "Ġ",
        "ide"
      ],
      [
        "ĠN",
        "ot"
      ],
      [
        "Ġri",
        "ght"
      ],
      [
        "DW",
        "ARD"
      ],
      [
        "Ġs",
        "oul"
      ],
      [
        "Ġm",
        "a"
      ],
      [
        "Ġd",
        "irect"
      ],
      [
        "Ġsub",
        "ordinate"
      ],
      [
        "TI",
        "VE"
      ],
      [
        "oh",
        "n"
      ],
      [
        "Ġm",
        "ind"
      ],
      [
        "Ġthou",
        "gh"
      ],
      [
        "Ġle",
        "ave"
      ],
      [
        "Ġpart",
        "s"
      ],
      [
        "Ġsing",
        "ular"
      ],
      [
        "ou",
        "d"
      ],
      [
        "is",
        "hed"
      ],
      [
        "Ġb",
        "re"
      ],
      [
        "ur",
        "s"
      ],
      [
        "Ġord",
        "er"
      ],
      [
        "i",
        "ble"
      ],
      [
        "art",
        "h"
      ],
      [
        "ĠWh",
        "o"
      ],
      [
        "P",
        "ET"
      ],
      [
        "e",
        "en"
      ],
      [
        "Ġst",
        "ri"
      ],
      [
        "ĠC",
        "la"
      ],
      [
        "Ġde",
        "ad"
      ],
      [
        "Ġ1",
        "2"
      ],
      [
        "L",
        "UC"
      ],
      [
        "Ġ",
        "7"
      ],
      [
        "Ġm",
        "other"
      ],
      [
        "em",
        "ber"
      ],
      [
        "e",
        "w"
      ],
      [
        "l",
        "f"
      ],
      [
        "Ġm",
        "is"
      ],
      [
        "on",
        "t"
      ],
      [
        "wh",
        "o"
      ],
      [
        "Ġint",
        "r"
      ],
      [
        "ĠTH",
        "E"
      ],
      [
        "m",
        "ost"
      ],
      [
        "o",
        "p"
      ],
      [
        "Ġpr",
        "in"
      ],
      [
        "ĠEd",
        "ward"
      ],
      [
        "v",
        "ent"
      ],
      [
        "re",
        "w"
      ],
      [
        "Ġg",
        "one"
      ],
      [
        "Ġey",
        "es"
      ],
      [
        "a",
        "il"
      ],
      [
        "Ġo",
        "m"
      ],
      [
        "an",
        "y"
      ],
      [
        "as",
        "on"
      ],
      [
        "oss",
        "ary"
      ],
      [
        "Ġthere",
        "fore"
      ],
      [
        "e",
        "x"
      ],
      [
        "u",
        "al"
      ],
      [
        "in",
        "ess"
      ],
      [
        "Ġmy",
        "self"
      ],
      [
        "Ġ1",
        "4"
      ],
      [
        "R",
        "OM"
      ],
      [
        "Ġm",
        "ist"
      ],
      [
        "Ġn",
        "ominative"
      ],
      [
        "ĠA",
        "y"
      ],
      [
        "TIO",
        "N"
      ],
      [
        "e",
        "ad"
      ],
      [
        "Ġas",
        "k"
      ],
      [
        "Ġconjun",
        "ctions"
      ],
      [
        "Ġbec",
        "ause"
      ],
      [
        "ver",
        "s"
      ],
      [
        "EN",
        "IUS"
      ],
      [
        "Sec",
        "ond"
      ],
      [
        "ROM",
        "EO"
      ],
      [
        "U",
        "T"
      ],
      [
        "m",
        "en"
      ],
      [
        "Ġ1",
        "6"
      ],
      [
        "Ġ1",
        "7"
      ],
      [
        "IN",
        "A"
      ],
      [
        "ON",
        "T"
      ],
      [
        "Ġfriend",
        "s"
      ],
      [
        "MEN",
        "ENIUS"
      ],
      [
        "ĠH",
        "is"
      ],
      [
        "Ġpossess",
        "ive"
      ],
      [
        "o",
        "ok"
      ],
      [
        "Ġm",
        "aster"
      ],
      [
        "ie",
        "ld"
      ],
      [
        "Ġqu",
        "een"
      ],
      [
        "i",
        "an"
      ],
      [
        "r",
        "an"
      ],
      [
        "ĠI",
        "II"
      ],
      [
        "Ġh",
        "ome"
      ],
      [
        "id",
        "en"
      ],
      [
        "Ġbet",
        "ween"
      ],
      [
        "R",
        "UCH"
      ],
      [
        "r",
        "ong"
      ],
      [
        "t",
        "s"
      ],
      [
        "Ġm",
        "o"
      ],
      [
        "ar",
        "k"
      ],
      [
        "Ġin",
        "st"
      ],
      [
        "od",
        "y"
      ],
      [
        "ĠS",
        "ir"
      ],
      [
        "Ġan",
        "sw"
      ],
      [
        "itt",
        "en"
      ],
      [
        "PET",
        "RUCH"
      ],
      [
        "PETRUCH",
        "IO"
      ],
      [
        "N",
        "D"
      ],
      [
        "u",
        "ally"
      ],
      [
        "Ġe",
        "arth"
      ],
      [
        "ĠW",
        "ill"
      ],
      [
        "Ġst",
        "ay"
      ],
      [
        "am",
        "es"
      ],
      [
        "Ġgr",
        "amm"
      ],
      [
        "Ġpo",
        "or"
      ],
      [
        "C",
        "OR"
      ],
      [
        "Ġt",
        "re"
      ],
      [
        "Ġs",
        "la"
      ],
      [
        "Ġ1",
        "3"
      ],
      [
        "EN",
        "T"
      ],
      [
        "te",
        "nd"
      ],
      [
        "har",
        "d"
      ],
      [
        "i",
        "a"
      ],
      [
        "Ġs",
        "ince"
      ],
      [
        "Ġg",
        "u"
      ],
      [
        "end",
        "er"
      ],
      [
        "Ġchan",
        "ge"
      ],
      [
        "au",
        "ghter"
      ],
      [
        "G",
        "E"
      ],
      [
        "n",
        "er"
      ],
      [
        "w",
        "hat"
      ],
      [
        "w",
        "ill"
      ],
      [
        "ak",
        "ing"
      ],
      [
        "Ġat",
        "t"
      ],
      [
        "Ġcond",
        "ition"
      ],
      [
        "u",
        "ck"
      ],
      [
        "Ġw",
        "ife"
      ],
      [
        "Ġb",
        "ack"
      ],
      [
        "ĠT",
        "han"
      ],
      [
        "Ġhe",
        "nce"
      ],
      [
        "Ġsub",
        "stant"
      ],
      [
        "Ġagain",
        "st"
      ],
      [
        "Ġke",
        "ep"
      ],
      [
        "Ġgener",
        "al"
      ],
      [
        "Ġ",
        "9"
      ],
      [
        "Ġsu",
        "ff"
      ],
      [
        "Ġhim",
        "self"
      ],
      [
        "ced",
        "ent"
      ],
      [
        "wh",
        "ich"
      ],
      [
        "Ġquest",
        "ions"
      ],
      [
        "EC",
        "T"
      ],
      [
        "P",
        "ER"
      ],
      [
        "u",
        "c"
      ],
      [
        "ul",
        "es"
      ],
      [
        "Ġintr",
        "odu"
      ],
      [
        "v",
        "o"
      ],
      [
        "w",
        "ith"
      ],
      [
        "Ġw",
        "o"
      ],
      [
        "Ġb",
        "us"
      ],
      [
        "Ġl",
        "ie"
      ],
      [
        "IO",
        "LAN"
      ],
      [
        "ĠG",
        "o"
      ],
      [
        "OM",
        "P"
      ],
      [
        "Ġnew",
        "s"
      ],
      [
        "IOLAN",
        "US"
      ],
      [
        "W",
        "h"
      ],
      [
        "ra",
        "ct"
      ],
      [
        "OT",
        "E"
      ],
      [
        "COR",
        "IOLANUS"
      ],
      [
        "u",
        "nd"
      ],
      [
        "Ġs",
        "le"
      ],
      [
        "Ġm",
        "akes"
      ],
      [
        "Ġc",
        "le"
      ],
      [
        "Ġcon",
        "tain"
      ],
      [
        "Ġgra",
        "ce"
      ],
      [
        "ENC",
        "E"
      ],
      [
        "p",
        "l"
      ],
      [
        "in",
        "s"
      ],
      [
        "Ġw",
        "ant"
      ],
      [
        "Ġf",
        "ar"
      ],
      [
        "Ġd",
        "aughter"
      ],
      [
        "Ġl",
        "ist"
      ],
      [
        "Ġg",
        "iv"
      ],
      [
        "Ġ1",
        "9"
      ],
      [
        "Ġqu",
        "al"
      ],
      [
        "itt",
        "ed"
      ],
      [
        "ap",
        "it"
      ],
      [
        "Ġt",
        "ri"
      ],
      [
        "Ġf",
        "ell"
      ],
      [
        "us",
        "ed"
      ],
      [
        "Ġe",
        "l"
      ],
      [
        "ut",
        "ure"
      ],
      [
        "Ġon",
        "ce"
      ],
      [
        "ĠY",
        "ork"
      ],
      [
        "Ġpo",
        "int"
      ],
      [
        "b",
        "ut"
      ],
      [
        "er",
        "m"
      ],
      [
        "it",
        "iz"
      ],
      [
        "Ġf",
        "all"
      ],
      [
        "Ġf",
        "ull"
      ],
      [
        "un",
        "e"
      ],
      [
        "Ġconjun",
        "ction"
      ],
      [
        "urp",
        "ose"
      ],
      [
        "v",
        "ant"
      ],
      [
        "Ġt",
        "ong"
      ],
      [
        "al",
        "s"
      ],
      [
        "ĠW",
        "ar"
      ],
      [
        "ri",
        "ef"
      ],
      [
        "ĠE",
        "DWARD"
      ],
      [
        "Ġconstru",
        "ction"
      ],
      [
        "R",
        "AN"
      ],
      [
        "g",
        "er"
      ],
      [
        "ĠS",
        "he"
      ],
      [
        "Ġv",
        "ar"
      ],
      [
        "OR",
        "D"
      ],
      [
        "M",
        "I"
      ],
      [
        "Ġs",
        "l"
      ],
      [
        "Ġm",
        "atter"
      ],
      [
        "at",
        "er"
      ],
      [
        "Ġre",
        "qu"
      ],
      [
        "ci",
        "ous"
      ],
      [
        "S",
        "iden"
      ],
      [
        "Ġwh",
        "om"
      ],
      [
        "Ġv",
        "ow"
      ],
      [
        "te",
        "cedent"
      ],
      [
        "Ġwr",
        "itten"
      ],
      [
        "Ġcor",
        "rect"
      ],
      [
        "Siden",
        "ote"
      ],
      [
        "W",
        "e"
      ],
      [
        "a",
        "red"
      ],
      [
        "b",
        "t"
      ],
      [
        "Ġyou",
        "ng"
      ],
      [
        "Ġle",
        "arn"
      ],
      [
        "ond",
        "er"
      ],
      [
        "as",
        "ure"
      ],
      [
        "Ġh",
        "our"
      ],
      [
        "ent",
        "ly"
      ],
      [
        "ut",
        "y"
      ],
      [
        "ĠN",
        "OTE"
      ],
      [
        "ff",
        "ect"
      ],
      [
        "Ġletter",
        "s"
      ],
      [
        "Ġansw",
        "er"
      ],
      [
        "he",
        "ther"
      ],
      [
        "ar",
        "ly"
      ],
      [
        "Ġe",
        "ven"
      ],
      [
        "Ġha",
        "pp"
      ],
      [
        "st",
        "and"
      ],
      [
        "ĠE",
        "x"
      ],
      [
        "O",
        "UN"
      ],
      [
        "Ġb",
        "ra"
      ],
      [
        "Ġfa",
        "ct"
      ],
      [
        "Ġimp",
        "ort"
      ],
      [
        "R",
        "ight"
      ],
      [
        "i",
        "et"
      ],
      [
        "Ġc",
        "ause"
      ],
      [
        "Ġin",
        "f"
      ],
      [
        "ic",
        "hard"
      ],
      [
        "ord",
        "s"
      ],
      [
        "Ġadverb",
        "ial"
      ],
      [
        ")",
        ","
      ],
      [
        "en",
        "ry"
      ],
      [
        "Ġc",
        "rown"
      ],
      [
        "Ġan",
        "tecedent"
      ],
      [
        "ĠR",
        "ichard"
      ],
      [
        "c",
        "on"
      ],
      [
        "w",
        "as"
      ],
      [
        "w",
        "ick"
      ],
      [
        "Ġw",
        "ish"
      ],
      [
        "Ġm",
        "ad"
      ],
      [
        "Ġd",
        "iv"
      ],
      [
        "Ġmodif",
        "iers"
      ],
      [
        "ĠJ",
        "ohn"
      ],
      [
        "iz",
        "e"
      ],
      [
        "Ġem",
        "p"
      ],
      [
        "get",
        "her"
      ],
      [
        "D",
        "Y"
      ],
      [
        "a",
        "x"
      ],
      [
        "b",
        "l"
      ],
      [
        "it",
        "ed"
      ],
      [
        "Ġd",
        "re"
      ],
      [
        "Ġh",
        "igh"
      ],
      [
        "Ġhe",
        "ard"
      ],
      [
        "Ġobject",
        "ive"
      ],
      [
        "Ġsee",
        "ing"
      ],
      [
        "J",
        "U"
      ],
      [
        "Ġb",
        "u"
      ],
      [
        "ĠY",
        "ORK"
      ],
      [
        "com",
        "ple"
      ],
      [
        "ĠWar",
        "wick"
      ],
      [
        "T",
        "is"
      ],
      [
        "Ġl",
        "aw"
      ],
      [
        "id",
        "ed"
      ],
      [
        "Ġsa",
        "w"
      ],
      [
        "Ġind",
        "ic"
      ],
      [
        "Ġper",
        "fect"
      ],
      [
        "Ġsomet",
        "hing"
      ],
      [
        "ĠGl",
        "ossary"
      ],
      [
        "R",
        "I"
      ],
      [
        "Ġpr",
        "ince"
      ],
      [
        "Ġspe",
        "ll"
      ],
      [
        "Ġbo",
        "y"
      ],
      [
        "Ġend",
        "ing"
      ],
      [
        "Ġel",
        "se"
      ],
      [
        "ha",
        "s"
      ],
      [
        "Ġc",
        "ertain"
      ],
      [
        "Ġf",
        "re"
      ],
      [
        "et",
        "h"
      ],
      [
        "Ġind",
        "irect"
      ],
      [
        "Ġpe",
        "ace"
      ],
      [
        "EL",
        "LA"
      ],
      [
        "IS",
        "AB"
      ],
      [
        "Ġru",
        "le"
      ],
      [
        "ISAB",
        "ELLA"
      ],
      [
        "S",
        "I"
      ],
      [
        "i",
        "us"
      ],
      [
        "i",
        "ct"
      ],
      [
        "ĠW",
        "ell"
      ],
      [
        "Ġwh",
        "ose"
      ],
      [
        "ie",
        "ve"
      ],
      [
        "Ġr",
        "ules"
      ],
      [
        "Ġfa",
        "ce"
      ],
      [
        "Ġwr",
        "ong"
      ],
      [
        "ag",
        "raph"
      ],
      [
        "Ġcomple",
        "x"
      ],
      [
        "Ġin",
        "c"
      ],
      [
        "Ġ1",
        "8"
      ],
      [
        "Ġho",
        "pe"
      ],
      [
        "ĠO",
        "ur"
      ],
      [
        "Ġexpress",
        "ed"
      ],
      [
        "ĠRome",
        "o"
      ],
      [
        "rog",
        "ative"
      ],
      [
        "g",
        "g"
      ],
      [
        "w",
        "hen"
      ],
      [
        "Ġ",
        "ill"
      ],
      [
        "Ġt",
        "alk"
      ],
      [
        "Ġc",
        "har"
      ],
      [
        "ĠA",
        "ll"
      ],
      [
        "_.",
        "]"
      ],
      [
        "LI",
        "ET"
      ],
      [
        "LE",
        "ONT"
      ],
      [
        "Ġprin",
        "ci"
      ],
      [
        "JU",
        "LIET"
      ],
      [
        "LEONT",
        "ES"
      ],
      [
        "Ġl",
        "ight"
      ],
      [
        "ĠH",
        "enry"
      ],
      [
        "Ġde",
        "ar"
      ],
      [
        "ĠN",
        "ay"
      ],
      [
        "ĠV",
        "er"
      ],
      [
        "Ġbr",
        "ing"
      ],
      [
        "Ġgiv",
        "en"
      ],
      [
        "Ġa",
        "c"
      ],
      [
        "Ġa",
        "ct"
      ],
      [
        "at",
        "ing"
      ],
      [
        "ĠI",
        "V"
      ],
      [
        "ĠH",
        "ave"
      ],
      [
        "ren",
        "ce"
      ],
      [
        "B",
        "R"
      ],
      [
        "Ġb",
        "id"
      ],
      [
        "Ġp",
        "urpose"
      ],
      [
        "Ġfor",
        "th"
      ],
      [
        "ER",
        "B"
      ],
      [
        "Ġmodif",
        "ied"
      ],
      [
        "Ġhow",
        "ever"
      ],
      [
        "LA",
        "DY"
      ],
      [
        "cl",
        "am"
      ],
      [
        "Ġthr",
        "ough"
      ],
      [
        "V",
        "OL"
      ],
      [
        "n",
        "o"
      ],
      [
        "p",
        "ound"
      ],
      [
        "r",
        "ing"
      ],
      [
        "Ġc",
        "ar"
      ],
      [
        "ic",
        "es"
      ],
      [
        "os",
        "ed"
      ],
      [
        "Ġr",
        "ather"
      ],
      [
        "Ġgr",
        "ou"
      ],
      [
        "Ġfe",
        "el"
      ],
      [
        "Ġrem",
        "ember"
      ],
      [
        "Ġt",
        "ill"
      ],
      [
        "ĠI",
        "I"
      ],
      [
        "Ġwh",
        "y"
      ],
      [
        "Ġsu",
        "pp"
      ],
      [
        "ĠC",
        "on"
      ],
      [
        "Ġobject",
        "s"
      ],
      [
        "Ġcomp",
        "ar"
      ],
      [
        "Ġcomple",
        "ment"
      ],
      [
        "Ġtong",
        "ue"
      ],
      [
        "f",
        "ord"
      ],
      [
        "p",
        "ect"
      ],
      [
        "u",
        "es"
      ],
      [
        "re",
        "t"
      ],
      [
        "Ġl",
        "im"
      ],
      [
        "ok",
        "en"
      ],
      [
        "Ġpl",
        "ay"
      ],
      [
        "Th",
        "is"
      ],
      [
        "A",
        "n"
      ],
      [
        "y",
        "al"
      ],
      [
        "re",
        "l"
      ],
      [
        "Ġb",
        "es"
      ],
      [
        "Ġsubstant",
        "ive"
      ],
      [
        "S",
        "IC"
      ],
      [
        "W",
        "rong"
      ],
      [
        "o",
        "g"
      ],
      [
        "Ġo",
        "p"
      ],
      [
        "Ġto",
        "gether"
      ],
      [
        "Ġre",
        "ason"
      ],
      [
        "ĠS",
        "hall"
      ],
      [
        "Ġan",
        "al"
      ],
      [
        "ak",
        "en"
      ],
      [
        "Ġcomm",
        "and"
      ],
      [
        "Ġnat",
        "ure"
      ],
      [
        "SIC",
        "INIUS"
      ],
      [
        "is",
        "ter"
      ],
      [
        "Ġth",
        "ird"
      ],
      [
        "ow",
        "s"
      ],
      [
        "Ġre",
        "ce"
      ],
      [
        "ie",
        "w"
      ],
      [
        "Ġun",
        "to"
      ],
      [
        "we",
        "re"
      ],
      [
        "1",
        "0"
      ],
      [
        "c",
        "ome"
      ],
      [
        "Ġw",
        "it"
      ],
      [
        "Ġl",
        "ives"
      ],
      [
        "Ġl",
        "ady"
      ],
      [
        "Ġh",
        "um"
      ],
      [
        "Ġsh",
        "ort"
      ],
      [
        "jun",
        "ctive"
      ],
      [
        "Ġhand",
        "s"
      ],
      [
        "Ġsing",
        "le"
      ],
      [
        "AS",
        "T"
      ],
      [
        "as",
        "h"
      ],
      [
        "Ġit",
        "self"
      ],
      [
        "Ġsu",
        "n"
      ],
      [
        "Ġ2",
        "0"
      ],
      [
        "ull",
        "y"
      ],
      [
        "Ġcoun",
        "t"
      ],
      [
        "l",
        "t"
      ],
      [
        "Ġs",
        "ign"
      ],
      [
        "Ġb",
        "an"
      ],
      [
        "or",
        "se"
      ],
      [
        "Ġg",
        "row"
      ],
      [
        "un",
        "t"
      ],
      [
        "ĠG",
        "ood"
      ],
      [
        "ard",
        "on"
      ],
      [
        "..",
        "."
      ],
      [
        "Ġpass",
        "ive"
      ],
      [
        "f",
        "ort"
      ],
      [
        "u",
        "p"
      ],
      [
        "Ġb",
        "reat"
      ],
      [
        "Ġc",
        "he"
      ],
      [
        "Ġbe",
        "a"
      ],
      [
        "ri",
        "ed"
      ],
      [
        "ĠTh",
        "y"
      ],
      [
        "ĠD",
        "e"
      ],
      [
        "IC",
        "K"
      ],
      [
        "Ġpar",
        "agraph"
      ],
      [
        "S",
        "T"
      ],
      [
        "b",
        "and"
      ],
      [
        "s",
        "and"
      ],
      [
        "Ġt",
        "ense"
      ],
      [
        "Ġd",
        "et"
      ],
      [
        "Ġde",
        "v"
      ],
      [
        "th",
        "y"
      ],
      [
        "ĠV",
        "I"
      ],
      [
        "LUC",
        "IO"
      ],
      [
        "e",
        "k"
      ],
      [
        "f",
        "ully"
      ],
      [
        "Ġc",
        "apit"
      ],
      [
        "Ġd",
        "uke"
      ],
      [
        "Ġh",
        "us"
      ],
      [
        "ain",
        "t"
      ],
      [
        "Ġfe",
        "w"
      ],
      [
        "Ġdou",
        "bt"
      ],
      [
        "N",
        "E"
      ],
      [
        "P",
        "O"
      ],
      [
        "c",
        "le"
      ],
      [
        "i",
        "ence"
      ],
      [
        "w",
        "here"
      ],
      [
        "er",
        "r"
      ],
      [
        "Ġb",
        "ro"
      ],
      [
        "Ġc",
        "r"
      ],
      [
        "Ġd",
        "r"
      ],
      [
        "ĠT",
        "ENS"
      ],
      [
        "Ġde",
        "g"
      ],
      [
        "Ġmar",
        "k"
      ],
      [
        "b",
        "y"
      ],
      [
        "Ġw",
        "ind"
      ],
      [
        "Ġe",
        "le"
      ],
      [
        "ur",
        "y"
      ],
      [
        "Ġme",
        "et"
      ],
      [
        "Ġex",
        "cept"
      ],
      [
        "Ġthou",
        "sand"
      ],
      [
        "ĠY",
        "et"
      ],
      [
        "Ġar",
        "m"
      ],
      [
        "Ġcl",
        "ose"
      ],
      [
        "LI",
        "Z"
      ],
      [
        "Ġbel",
        "ong"
      ],
      [
        "Ġinst",
        "ead"
      ],
      [
        "ĠTENS",
        "E"
      ],
      [
        "I",
        "f"
      ],
      [
        "p",
        "al"
      ],
      [
        "w",
        "ell"
      ],
      [
        "Ġs",
        "il"
      ],
      [
        "re",
        "st"
      ],
      [
        "Ġn",
        "one"
      ],
      [
        "Ġin",
        "s"
      ],
      [
        "Ġth",
        "ine"
      ],
      [
        "Ġus",
        "ually"
      ],
      [
        "ci",
        "al"
      ],
      [
        "li",
        "ke"
      ],
      [
        "Ġsy",
        "ll"
      ],
      [
        "Ġwom",
        "an"
      ],
      [
        "is",
        "ed"
      ],
      [
        "Ġl",
        "and"
      ],
      [
        "Ġe",
        "qu"
      ],
      [
        "ce",
        "ed"
      ],
      [
        "Ġfor",
        "t"
      ],
      [
        "sh",
        "ould"
      ],
      [
        "P",
        "R"
      ],
      [
        "v",
        "y"
      ],
      [
        "Ġo",
        "cc"
      ],
      [
        "at",
        "ives"
      ],
      [
        "Ġy",
        "ears"
      ],
      [
        "Ġg",
        "et"
      ],
      [
        "ĠE",
        "LIZ"
      ],
      [
        "Ġne",
        "cess"
      ],
      [
        "ET",
        "H"
      ],
      [
        "Ġsp",
        "oken"
      ],
      [
        "Ġtr",
        "uth"
      ],
      [
        "sh",
        "ip"
      ],
      [
        "AB",
        "ETH"
      ],
      [
        "Ġhus",
        "band"
      ],
      [
        "ĠELIZ",
        "ABETH"
      ],
      [
        "I",
        "t"
      ],
      [
        "a",
        "le"
      ],
      [
        "Ġ",
        "Â§"
      ],
      [
        "Ġt",
        "urn"
      ],
      [
        "Ġd",
        "ra"
      ],
      [
        "Ġwith",
        "in"
      ],
      [
        "Ġwh",
        "ile"
      ],
      [
        "ie",
        "f"
      ],
      [
        "Ġpre",
        "ced"
      ],
      [
        "H",
        "ENRY"
      ],
      [
        "m",
        "er"
      ],
      [
        "it",
        "ies"
      ],
      [
        "Ġp",
        "at"
      ],
      [
        "Ġre",
        "f"
      ],
      [
        "ĠS",
        "h"
      ],
      [
        "Ġso",
        "on"
      ],
      [
        "Ġperson",
        "s"
      ],
      [
        "Ġt",
        "e"
      ],
      [
        "Ġf",
        "uture"
      ],
      [
        "Ġn",
        "ames"
      ],
      [
        "Ġre",
        "t"
      ],
      [
        "Ġse",
        "par"
      ],
      [
        "ĠP",
        "R"
      ],
      [
        "ĠF",
        "rom"
      ],
      [
        "Ġstri",
        "ke"
      ],
      [
        "Ġgramm",
        "ar"
      ],
      [
        "itiz",
        "en"
      ],
      [
        "d",
        "en"
      ],
      [
        "m",
        "on"
      ],
      [
        "it",
        "or"
      ],
      [
        "ve",
        "re"
      ],
      [
        "st",
        "it"
      ],
      [
        "Ġso",
        "ld"
      ],
      [
        "ro",
        "v"
      ],
      [
        "Ġ2",
        "8"
      ],
      [
        "Ġbec",
        "ome"
      ],
      [
        "Ġden",
        "ot"
      ],
      [
        "Ġbus",
        "iness"
      ],
      [
        "r",
        "ant"
      ],
      [
        "Ġw",
        "in"
      ],
      [
        "Ġc",
        "ity"
      ],
      [
        "Ġp",
        "un"
      ],
      [
        "ĠI",
        "nd"
      ],
      [
        "ct",
        "u"
      ],
      [
        "Ġe",
        "as"
      ],
      [
        "ĠA",
        "l"
      ],
      [
        "Ġre",
        "c"
      ],
      [
        "ĠS",
        "ome"
      ],
      [
        "Ġst",
        "e"
      ],
      [
        "ro",
        "p"
      ],
      [
        "Ġexam",
        "ples"
      ],
      [
        "iss",
        "ion"
      ],
      [
        "Ġvow",
        "el"
      ],
      [
        "H",
        "AM"
      ],
      [
        "W",
        "AR"
      ],
      [
        "W",
        "ICK"
      ],
      [
        "i",
        "ol"
      ],
      [
        "n",
        "t"
      ],
      [
        "s",
        "hall"
      ],
      [
        "t",
        "le"
      ],
      [
        "Ġm",
        "ain"
      ],
      [
        "Ġf",
        "ore"
      ],
      [
        "ĠA",
        "D"
      ],
      [
        "ĠH",
        "ENRY"
      ],
      [
        "Ġless",
        "on"
      ],
      [
        "Ġreg",
        "ard"
      ],
      [
        "Ġhar",
        "d"
      ],
      [
        "Ġcount",
        "ry"
      ],
      [
        "WAR",
        "WICK"
      ],
      [
        ".",
        "âĢĿ"
      ],
      [
        "Ġ",
        "..."
      ],
      [
        "re",
        "r"
      ],
      [
        "Ġw",
        "onder"
      ],
      [
        "Ġb",
        "ody"
      ],
      [
        "Ġc",
        "a"
      ],
      [
        "Ġf",
        "ree"
      ],
      [
        "Ġl",
        "ay"
      ],
      [
        "ut",
        "ion"
      ],
      [
        "il",
        "ity"
      ],
      [
        "Ġab",
        "s"
      ],
      [
        "Ġstate",
        "ment"
      ],
      [
        "Ġey",
        "e"
      ],
      [
        "g",
        "es"
      ],
      [
        "m",
        "p"
      ],
      [
        "Ġt",
        "em"
      ],
      [
        "it",
        "er"
      ],
      [
        "Ġf",
        "ire"
      ],
      [
        "ve",
        "lo"
      ],
      [
        "la",
        "ck"
      ],
      [
        "ous",
        "in"
      ],
      [
        "Ġexpress",
        "ion"
      ],
      [
        "Ġmodif",
        "ies"
      ],
      [
        "Ġmodif",
        "ier"
      ],
      [
        "Ġlord",
        "s"
      ],
      [
        "Ġjo",
        "y"
      ],
      [
        "Ġbegin",
        "ning"
      ],
      [
        "G",
        "R"
      ],
      [
        "G",
        "RE"
      ],
      [
        "l",
        "come"
      ],
      [
        "Ġf",
        "in"
      ],
      [
        "ĠA",
        "r"
      ],
      [
        "ĠS",
        "ay"
      ],
      [
        "il",
        "i"
      ],
      [
        "ag",
        "es"
      ],
      [
        "Ġcons",
        "ist"
      ],
      [
        "Ġho",
        "ld"
      ],
      [
        "C",
        "om"
      ],
      [
        "m",
        "orrow"
      ],
      [
        "Ġt",
        "ears"
      ],
      [
        "Ġl",
        "ate"
      ],
      [
        "ic",
        "ular"
      ],
      [
        "od",
        "s"
      ],
      [
        "ĠS",
        "er"
      ],
      [
        "ject",
        "ive"
      ],
      [
        "Ġpr",
        "act"
      ],
      [
        "ĠC",
        "itizen"
      ],
      [
        "ER",
        "S"
      ],
      [
        "UL",
        "ET"
      ],
      [
        "U",
        "R"
      ],
      [
        "W",
        "hen"
      ],
      [
        "m",
        "b"
      ],
      [
        "o",
        "y"
      ],
      [
        "Ġto",
        "ld"
      ],
      [
        "an",
        "c"
      ],
      [
        "Ġre",
        "fer"
      ],
      [
        "ĠM",
        "AR"
      ],
      [
        "est",
        "y"
      ],
      [
        "Ġqu",
        "ot"
      ],
      [
        "Ġen",
        "em"
      ],
      [
        "Ġcour",
        "se"
      ],
      [
        "Ġide",
        "a"
      ],
      [
        ",",
        "\""
      ],
      [
        "L",
        "AR"
      ],
      [
        "M",
        "IO"
      ],
      [
        "g",
        "th"
      ],
      [
        "i",
        "ke"
      ],
      [
        "i",
        "res"
      ],
      [
        "l",
        "ing"
      ],
      [
        "Ġa",
        "uth"
      ],
      [
        "Ġm",
        "on"
      ],
      [
        "ĠI",
        "N"
      ],
      [
        "ch",
        "o"
      ],
      [
        "ĠO",
        "n"
      ],
      [
        "Ġk",
        "ill"
      ],
      [
        "Ġpart",
        "icular"
      ],
      [
        "Ġr",
        "un"
      ],
      [
        "Ġvo",
        "ice"
      ],
      [
        "Ġimport",
        "ant"
      ],
      [
        ",",
        "âĢĿ"
      ],
      [
        "B",
        "RO"
      ],
      [
        "d",
        "o"
      ],
      [
        "n",
        "ow"
      ],
      [
        "u",
        "res"
      ],
      [
        "v",
        "i"
      ],
      [
        "Ġs",
        "orrow"
      ],
      [
        "Ġw",
        "hether"
      ],
      [
        "Ġf",
        "our"
      ],
      [
        "Ġde",
        "p"
      ],
      [
        "Ġle",
        "ft"
      ],
      [
        "ĠK",
        "ing"
      ],
      [
        "ans",
        "itive"
      ],
      [
        "Ġunder",
        "stand"
      ],
      [
        "Ġple",
        "ase"
      ],
      [
        "Ġap",
        "pe"
      ],
      [
        "T",
        "RAN"
      ],
      [
        "Y",
        "ou"
      ],
      [
        "a",
        "ir"
      ],
      [
        "Ġ",
        "i"
      ],
      [
        "er",
        "n"
      ],
      [
        "Ġf",
        "ight"
      ],
      [
        "ĠA",
        "t"
      ],
      [
        "ord",
        "ing"
      ],
      [
        "ol",
        "s"
      ],
      [
        "UC",
        "KING"
      ],
      [
        "Ġro",
        "yal"
      ],
      [
        "Ġbel",
        "ieve"
      ],
      [
        "Ġass",
        "ert"
      ],
      [
        "Ġbre",
        "ak"
      ],
      [
        "UT",
        "US"
      ],
      [
        "Ġsle",
        "ep"
      ],
      [
        "BR",
        "UTUS"
      ],
      [
        "UCKING",
        "HAM"
      ],
      [
        "B",
        "UCKINGHAM"
      ],
      [
        "N",
        "urse"
      ],
      [
        "r",
        "d"
      ],
      [
        "re",
        "g"
      ],
      [
        "Ġp",
        "res"
      ],
      [
        "ĠS",
        "uch"
      ],
      [
        "ĠB",
        "OL"
      ],
      [
        "Ġv",
        "al"
      ],
      [
        "ING",
        "BRO"
      ],
      [
        "TRAN",
        "IO"
      ],
      [
        "ĠBOL",
        "INGBRO"
      ],
      [
        "ĠBOLINGBRO",
        "KE"
      ],
      [
        "G",
        "AR"
      ],
      [
        "c",
        "la"
      ],
      [
        "i",
        "red"
      ],
      [
        "l",
        "ic"
      ],
      [
        "t",
        "ing"
      ],
      [
        "Ġme",
        "re"
      ],
      [
        "ĠS",
        "u"
      ],
      [
        "Ġse",
        "nd"
      ],
      [
        "Ġman",
        "ner"
      ],
      [
        "Ġun",
        "t"
      ],
      [
        "ang",
        "er"
      ],
      [
        "Ġen",
        "ough"
      ],
      [
        "I",
        "R"
      ],
      [
        "u",
        "ght"
      ],
      [
        "Ġt",
        "it"
      ],
      [
        "Ġt",
        "imes"
      ],
      [
        "Ġre",
        "v"
      ],
      [
        "Ġex",
        "clam"
      ],
      [
        "Ġlo",
        "st"
      ],
      [
        "Ġexpress",
        "ions"
      ],
      [
        "Ġthan",
        "k"
      ],
      [
        "Ġwho",
        "le"
      ],
      [
        "Ġgentle",
        "man"
      ],
      [
        "Ġfell",
        "ow"
      ],
      [
        "Ġcapit",
        "al"
      ],
      [
        "b",
        "r"
      ],
      [
        "v",
        "ice"
      ],
      [
        "w",
        "ould"
      ],
      [
        "y",
        "ou"
      ],
      [
        "Ġw",
        "alk"
      ],
      [
        "ou",
        "ra"
      ],
      [
        "Ġe",
        "re"
      ],
      [
        "al",
        "se"
      ],
      [
        "ir",
        "t"
      ],
      [
        "Ġme",
        "t"
      ],
      [
        "Ġpr",
        "om"
      ],
      [
        "ĠC",
        "l"
      ],
      [
        "Ġyour",
        "self"
      ],
      [
        "Ġfa",
        "ult"
      ],
      [
        "Ġsp",
        "ir"
      ],
      [
        "Ġdif",
        "f"
      ],
      [
        "._",
        "]"
      ],
      [
        "Ġwrit",
        "ing"
      ],
      [
        "Ġintrodu",
        "ced"
      ],
      [
        "velo",
        "p"
      ],
      [
        "I",
        "A"
      ],
      [
        "T",
        "o"
      ],
      [
        "y",
        "p"
      ],
      [
        "re",
        "et"
      ],
      [
        "Ġb",
        "ed"
      ],
      [
        "an",
        "ge"
      ],
      [
        "ent",
        "s"
      ],
      [
        "al",
        "t"
      ],
      [
        "im",
        "ple"
      ],
      [
        "Ġus",
        "es"
      ],
      [
        "Ġus",
        "age"
      ],
      [
        "id",
        "er"
      ],
      [
        "un",
        "g"
      ],
      [
        "Ġsha",
        "me"
      ],
      [
        "Ġform",
        "ed"
      ],
      [
        "Ġsub",
        "junctive"
      ],
      [
        "Ġpla",
        "ced"
      ],
      [
        "Ġdre",
        "am"
      ],
      [
        "ĠMAR",
        "GAR"
      ],
      [
        "ĠMARGAR",
        "ET"
      ],
      [
        "A",
        "TH"
      ],
      [
        "C",
        "H"
      ],
      [
        "M",
        "AR"
      ],
      [
        "k",
        "en"
      ],
      [
        "ou",
        "ch"
      ],
      [
        "Ġf",
        "am"
      ],
      [
        "Ġp",
        "ardon"
      ],
      [
        "ic",
        "s"
      ],
      [
        "Ġh",
        "ither"
      ],
      [
        "Ġha",
        "ving"
      ],
      [
        "ver",
        "n"
      ],
      [
        "Ġwe",
        "ep"
      ],
      [
        "id",
        "es"
      ],
      [
        "Ġyour",
        "s"
      ],
      [
        "ust",
        "r"
      ],
      [
        "per",
        "ative"
      ],
      [
        "Ġ3",
        "0"
      ],
      [
        "Ġrel",
        "ation"
      ],
      [
        "Ġthought",
        "s"
      ],
      [
        "Ġstand",
        "s"
      ],
      [
        "Ġbook",
        "s"
      ],
      [
        "Ġdist",
        "in"
      ],
      [
        "Ġfre",
        "qu"
      ],
      [
        "H",
        "OR"
      ],
      [
        "S",
        "H"
      ],
      [
        "o",
        "ke"
      ],
      [
        "x",
        "t"
      ],
      [
        "Ġw",
        "ilt"
      ],
      [
        "ha",
        "ve"
      ],
      [
        "Ġc",
        "ol"
      ],
      [
        "ĠA",
        "ND"
      ],
      [
        "ur",
        "de"
      ],
      [
        "Ġse",
        "ver"
      ],
      [
        "--",
        "_"
      ],
      [
        "Ġv",
        "ill"
      ],
      [
        "Ġday",
        "s"
      ],
      [
        "Ġchild",
        "ren"
      ],
      [
        "led",
        "ge"
      ],
      [
        "Ġmodify",
        "ing"
      ],
      [
        "Ġspell",
        "ing"
      ],
      [
        "a",
        "id"
      ],
      [
        "p",
        "r"
      ],
      [
        "Ġf",
        "ur"
      ],
      [
        "Ġd",
        "i"
      ],
      [
        "ĠT",
        "ake"
      ],
      [
        "Ġbe",
        "h"
      ],
      [
        "ent",
        "ion"
      ],
      [
        "Ġg",
        "rief"
      ],
      [
        "id",
        "ent"
      ],
      [
        "ress",
        "ive"
      ],
      [
        "ĠR",
        "e"
      ],
      [
        "one",
        "y"
      ]
    ]
  }
}