{"version": "1.0", "truncation": null, "padding": null, "added_tokens": [{"id": 0, "content": "<|endoftext|>", "single_word": false, "lstrip": false, "rstrip": false, "normalized": false, "special": true}], "normalizer": null, "pre_tokenizer": {"type": "ByteLevel", "add_prefix_space": false, "trim_offsets": true, "use_regex": true}, "post_processor": null, "decoder": null, "model": {"type": "BPE", "dropout": null, "unk_token": null, "continuing_subword_prefix": null, "end_of_word_suffix": null, "fuse_unk": false, "byte_fallback": false, "ignore_merges": false, "vocab": {"<|endoftext|>": 0, "!": 1, "\"": 2, "#": 3, "$": 4, "%": 5, "&": 6, "'": 7, "(": 8, ")": 9, "*": 10, "+": 11, ",": 12, "-": 13, ".": 14, "/": 15, "0": 16, "1": 17, "2": 18, "3": 19, "4": 20, "5": 21, "6": 22, "7": 23, "8": 24, "9": 25, ":": 26, ";": 27, "=": 28, "?": 29, "@": 30, "A": 31, "B": 32, "C": 33, "D": 34, "E": 35, "F": 36, "G": 37, "H": 38, "I": 39, "J": 40, "K": 41, "L": 42, "M": 43, "N": 44, "O": 45, "P": 46, "Q": 47, "R": 48, "S": 49, "T": 50, "U": 51, "V": 52, "W": 53, "X": 54, "Y": 55, "Z": 56, "[": 57, "]": 58, "^": 59, "_": 60, "a": 61, "b": 62, "c": 63, "d": 64, "e": 65, "f": 66, "g": 67, "h": 68, "i": 69, "j": 70, "k": 71, "l": 72, "m": 73, "n": 74, "o": 75, "p": 76, "q": 77, "r": 78, "s": 79, "t": 80, "u": 81, "v": 82, "w": 83, "x": 84, "y": 85, "z": 86, "{": 87, "|": 88, "}": 89, "~": 90, "¡": 91, "¢": 92, "£": 93, "¤": 94, "¦": 95, "§": 96, "¨": 97, "©": 98, "«": 99, "°": 100, "±": 101, "´": 102, "¶": 103, "·": 104, "¼": 105, "¾": 106, "Â": 107, "Ã": 108, "Ä": 109, "Å": 110, "â": 111, "Ċ": 112, "č": 113, "Ġ": 114, "Ģ": 115, "ģ": 116, "Ĩ": 117, "ĭ": 118, "į": 119, "ĵ": 120, "ķ": 121, "Ļ": 122, "ľ": 123, "Ŀ": 124, "ł": 125, "Ġt": 126, "he": 127, "Ġa": 128, "čĊ": 129, "in": 130, "Ġs": 131, "re": 132, "Ġthe": 133, "Ġo": 134, "Ġw": 135, "ou": 136, "er": 137, "Ġm": 138, "nd": 139, "is": 140, "ha": 141, "Ġb": 142, "on": 143, "or": 144, "en": 145, "Ġ_": 146, "Ġc": 147, "it": 148, "Ġf": 149, "es": 150, "Ġp": 151, "Ġof": 152, "ll": 153, "ed": 154, "Ġn": 155, "ar": 156, "Ġd": 157, "ing": 158, "at": 159, "Ġin": 160, "ve": 161, "ĠI": 162, "Ġto": 163, "om": 164, "Ġand": 165, "le": 166, "us": 167, "an": 168, "ĠT": 169, "ot": 170, "Ġth": 171, "ct": 172, "hat": 173, "Ġbe": 174, "Ġy": 175, "Ġl": 176, "Ġis": 177, "ic": 178, "as": 179, "Ġh": 180, "Ġyou": 181, "ow": 182, "Ġe": 183, "ent": 184, "ion": 185, "Ġg": 186, "ĠA": 187, "Ġha": 188, "ay": 189, "Ġhe": 190, "ce": 191, "se": 192, "ver": 193, "ut": 194, "Ġfor": 195, "al": 196, "st": 197, "ld": 198, "_,": 199, "im": 200, "ĠW": 201, "ive": 202, "Ġas": 203, "ect": 204, "ith": 205, "Ġnot": 206, "ur": 207, "Ġwe": 208, "ir": 209, "ĠThe": 210, "Ġthat": 211, "Ġre": 212, "Ġus": 213, "ord": 214, "Ġme": 215, "Ġit": 216, "gh": 217, "ly": 218, "od": 219, "ĠS": 220, "her": 221, "Ġwith": 222, "Ġor": 223, "et": 224, "Ġst": 225, "am": 226, "id": 227, "if": 228, "ill": 229, "Ġmy": 230, "ject": 231, "Ġare": 232, "ad": 233, "ke": 234, "ch": 235, "Ġwh": 236, "Ġsu": 237, "Ġcom": 238, "Ġan": 239, "Ġpr": 240, "ĠH": 241, "Ġhave": 242, "la": 243, "_.": 244, "ter": 245, "ould": 246, "Ġon": 247, "un": 248, "ĠC": 249, "oun": 250, "Ġcon": 251, "'s": 252, "ich": 253, "ght": 254, "verb": 255, "Ġad": 256, "ĠB": 257, "Ġse": 258, "res": 259, "ess": 260, "ĠM": 261, "Ġex": 262, "ple": 263, "ra": 264, "ri": 265, "Ġde": 266, "ĠP": 267, "ore": 268, "ĠO": 269, "Ġthis": 270, "ate": 271, "pe": 272, "Ġby": 273, "--": 274, "ul": 275, "Ġyour": 276, "Ġword": 277, "os": 278, "Ġk": 279, "ĠAnd": 280, "ge": 281, "Ġthou": 282, "Ġsh": 283, "Ġ1": 284, "Ġhis": 285, "est": 286, "EN": 287, "art": 288, "bject": 289, "all": 290, "qu": 291, "Ġwhich": 292, "ĠF": 293, "iv": 294, "Ġso": 295, "Ġ(": 296, "Ġ+": 297, "ome": 298, "Ġwill": 299, "IN": 300, "ĠN": 301, "ers": 302, ".+": 303, "ain": 304, "Ġbut": 305, "Ġdo": 306, "il": 307, "ĠE": 308, "Ġsent": 309, "ence": 310, "Ġhim": 311, "ro": 312, "Ġgo": 313, "Ġle": 314, "ru": 315, "ĠY": 316, "'d": 317, "Ġne": 318, "our": 319, "ation": 320, "th": 321, "IO": 322, "Ġverb": 323, "Ġused": 324, "han": 325, "hen": 326, "ak": 327, "ĠG": 328, "ĠL": 329, "AR": 330, "âĢ": 331, "ĠTh": 332, "ant": 333, "rom": 334, "Ġsha": 335, "Ġwas": 336, "Ġu": 337, "Ġv": 338, "ake": 339, "red": 340, "Ġmay": 341, "Ġno": 342, "Ġall": 343, "ight": 344, "ck": 345, "and": 346, "ust": 347, "ble": 348, "ress": 349, "ĠR": 350, "Ġlo": 351, "ast": 352, "Ġour": 353, "ol": 354, "Ġwords": 355, "ER": 356, "ction": 357, "ound": 358, "Ġman": 359, "Ġform": 360, "use": 361, "ong": 362, "ĠD": 363, "em": 364, "ard": 365, "Ġuse": 366, "ie": 367, "Ġat": 368, "ame": 369, "Ġfrom": 370, "ĠHe": 371, "ind": 372, "Ġnoun": 373, "ES": 374, "ous": 375, "ond": 376, "ell": 377, "Ġshould": 378, "to": 379, "ition": 380, "Ġqu": 381, "Ġspe": 382, "Ġal": 383, "ative": 384, "Ġcla": 385, "Ġone": 386, "ok": 387, "ine": 388, "Ġsentence": 389, "The": 390, "US": 391, "Ġthey": 392, "Ġexp": 393, "Ġkn": 394, "Ġthy": 395, "ist": 396, "Ġshall": 397, "ost": 398, "ose": 399, "Ġ2": 400, "pp": 401, "Ġpart": 402, "Ġher": 403, "ĠTo": 404, "sel": 405, "ther": 406, "Ġcan": 407, "Ġup": 408, "Ġr": 409, "Ġmore": 410, "Ġmean": 411, "one": 412, "um": 413, "Ġun": 414, "ish": 415, "Ġwhat": 416, "we": 417, "Ġadject": 418, "ives": 419, "ĠWh": 420, "Ġ'": 421, "Ġfa": 422, "ĠFor": 423, "ig": 424, "ase": 425, "ire": 426, "ry": 427, "te": 428, "Ġfo": 429, "row": 430, "ure": 431, "Ġsay": 432, "ci": 433, "ING": 434, "Ġli": 435, "ĠIn": 436, "OR": 437, "ĠWe": 438, "Ġwor": 439, "Ġwould": 440, "very": 441, "ces": 442, "Ġobject": 443, "Ġthese": 444, "Ġif": 445, "ity": 446, "Ġtheir": 447, "Ġthem": 448, "ment": 449, "ren": 450, "ort": 451, "oth": 452, "Ġsubject": 453, "oss": 454, "Ġam": 455, "ass": 456, "Ġgood": 457, "onoun": 458, "here": 459, "Ġsee": 460, "pt": 461, "ĠV": 462, "Ġexpress": 463, "Ġthere": 464, "Ġthee": 465, "Ġpre": 466, "per": 467, "Ġmod": 468, "ime": 469, "ĠBut": 470, "other": 471, "irst": 472, "Ġpro": 473, "Ġab": 474, "ies": 475, "Ġthan": 476, "UC": 477, "are": 478, "ary": 479, "reat": 480, "ear": 481, "fore": 482, "Ġar": 483, "Ġlet": 484, "Ġwhen": 485, "ĠYou": 486, "Ġsa": 487, "ĠThat": 488, "Ġknow": 489, "el": 490, "AN": 491, "age": 492, "ice": 493, "Ġcall": 494, "lo": 495, "Ġtw": 496, "Ġpronoun": 497, "Ġadverb": 498, "end": 499, "IC": 500, "Ġhad": 501, "hr": 502, "out": 503, "self": 504, "ng": 505, "ud": 506, "ber": 507, "ide": 508, "Ġcomp": 509, "Ġother": 510, "ET": 511}, "merges": ["Ġ t", "h e", "Ġ a", "č Ċ", "i n", "Ġ s", "r e", "Ġt he", "Ġ o", "Ġ w", "o u", "e r", "Ġ m", "n d", "i s", "h a", "Ġ b", "o n", "o r", "e n", "Ġ _", "Ġ c", "i t", "Ġ f", "e s", "Ġ p", "Ġo f", "l l", "e d", "Ġ n", "a r", "Ġ d", "in g", "a t", "Ġ in", "v e", "Ġ I", "Ġt o", "o m", "Ġa nd", "l e", "u s", "a n", "Ġ T", "o t", "Ġt h", "c t", "ha t", "Ġb e", "Ġ y", "Ġ l", "Ġ is", "i c", "a s", "Ġ h", "Ġy ou", "o w", "Ġ e", "en t", "i on", "Ġ g", "Ġ A", "Ġ ha", "a y", "Ġ he", "c e", "s e", "v er", "u t", "Ġf or", "a l", "s t", "l d", "_ ,", "i m", "Ġ W", "i ve", "Ġa s", "e ct", "it h", "Ġn ot", "u r", "Ġw e", "i r", "ĠT he", "Ġt hat", "Ġ re", "Ġ us", "or d", "Ġm e", "Ġ it", "g h", "l y", "o d", "Ġ S", "he r", "Ġw ith", "Ġo r", "e t", "Ġs t", "a m", "i d", "i f", "i ll", "Ġm y", "j ect", "Ġa re", "a d", "k e", "c h", "Ġw h", "Ġs u", "Ġc om", "Ġa n", "Ġp r", "Ġ H", "Ġha ve", "l a", "_ .", "t er", "ou ld", "Ġo n", "u n", "Ġ C", "ou n", "Ġc on", "' s", "ic h", "gh t", "ver b", "Ġa d", "Ġ B", "Ġs e", "re s", "es s", "Ġ M", "Ġe x", "p le", "r a", "r i", "Ġd e", "Ġ P", "o re", "Ġ O", "Ġth is", "at e", "p e", "Ġb y", "- -", "u l", "Ġyou r", "Ġw ord", "o s", "Ġ k", "ĠA nd", "g e", "Ġth ou", "Ġs h", "Ġ 1", "Ġh is", "es t", "E N", "ar t", "b ject", "a ll", "q u", "Ġwh ich", "Ġ F", "i v", "Ġs o", "Ġ (", "Ġ +", "om e", "Ġw ill", "I N", "Ġ N", "er s", ". +", "a in", "Ġb ut", "Ġd o", "i l", "Ġ E", "Ġs ent", "en ce", "Ġh im", "r o", "Ġg o", "Ġ le", "r u", "Ġ Y", "' d", "Ġn e", "ou r", "at ion", "t h", "I O", "Ġ verb", "Ġus ed", "ha n", "he n", "a k", "Ġ G", "Ġ L", "A R", "â Ģ", "ĠT h", "an t", "r om", "Ġs ha", "Ġw as", "Ġ u", "Ġ v", "a ke", "re d", "Ġm ay", "Ġn o", "Ġa ll", "i ght", "c k", "a nd", "us t", "b le", "res s", "Ġ R", "Ġl o", "as t", "Ġo ur", "o l", "Ġword s", "E R", "ct ion", "ou nd", "Ġm an", "Ġfor m", "us e", "on g", "Ġ D", "e m", "ar d", "Ġus e", "i e", "Ġa t", "am e", "Ġf rom", "ĠH e", "in d", "Ġn oun", "E S", "ou s", "o nd", "e ll", "Ġsh ould", "t o", "it ion", "Ġ qu", "Ġs pe", "Ġa l", "at ive", "Ġc la", "Ġon e", "o k", "in e", "Ġsent ence", "T he", "U S", "Ġthe y", "Ġex p", "Ġk n", "Ġth y", "is t", "Ġsha ll", "o st", "o se", "Ġ 2", "p p", "Ġp art", "Ġhe r", "ĠT o", "se l", "t her", "Ġc an", "Ġu p", "Ġ r", "Ġm ore", "Ġme an", "on e", "u m", "Ġ un", "is h", "Ġw hat", "w e", "Ġad ject", "iv es", "ĠW h", "Ġ '", "Ġf a", "ĠF or", "i g", "as e", "i re", "r y", "t e", "Ġf o", "r ow", "u re", "Ġs ay", "c i", "IN G", "Ġl i", "ĠI n", "O R", "ĠW e", "Ġw or", "Ġw ould", "ver y", "c es", "Ġo bject", "Ġthe se", "Ġ if", "it y", "Ġthe ir", "Ġthe m", "m ent", "re n", "or t", "ot h", "Ġsu bject", "os s", "Ġa m", "as s", "Ġgo od", "on oun", "he re", "Ġse e", "p t", "Ġ V", "Ġexp ress", "Ġthe re", "Ġthe e", "Ġp re", "p er", "Ġm od", "im e", "ĠB ut", "ot her", "ir st", "Ġpr o", "Ġa b", "i es", "Ġt han", "U C", "a re", "ar y", "re at", "e ar", "f ore", "Ġa r", "Ġle t", "Ġw hen", "ĠY ou", "Ġs a", "ĠT hat", "Ġkn ow", "e l", "A N", "a ge", "ic e", "Ġc all", "l o", "Ġt w", "Ġpr onoun", "Ġad verb", "e nd", "I C", "Ġha d", "h r", "ou t", "sel f", "n g", "u d", "b er", "id e", "Ġcom p", "Ġo ther", "E T"]}}