{"version": "1.0", "truncation": null, "padding": null, "added_tokens": [{"id": 0, "content": "<|endoftext|>", "single_word": false, "lstrip": false, "rstrip": false, "normalized": false, "special": true}], "normalizer": null, "pre_tokenizer": {"type": "ByteLevel", "add_prefix_space": false, "trim_offsets": true, "use_regex": true}, "post_processor": null, "decoder": null, "model": {"type": "BPE", "dropout": null, "unk_token": null, "continuing_subword_prefix": null, "end_of_word_suffix": null, "fuse_unk": false, "byte_fallback": false, "ignore_merges": false, "vocab": {"<|endoftext|>": 0, "!": 1, "\"": 2, "#": 3, "$": 4, "%": 5, "&": 6, "'": 7, "(": 8, ")": 9, "*": 10, "+": 11, ",": 12, "-": 13, ".": 14, "/": 15, "0": 16, "1": 17, "2": 18, "3": 19, "4": 20, "5": 21, "6": 22, "7": 23, "8": 24, "9": 25, ":": 26, ";": 27, "=": 28, ">": 29, "?": 30, "@": 31, "A": 32, "B": 33, "C": 34, "D": 35, "E": 36, "F": 37, "G": 38, "H": 39, "I": 40, "J": 41, "K": 42, "L": 43, "M": 44, "N": 45, "O": 46, "P": 47, "Q": 48, "R": 49, "S": 50, "T": 51, "U": 52, "V": 53, "W": 54, "X": 55, "Y": 56, "Z": 57, "[": 58, "]": 59, "^": 60, "_": 61, "`": 62, "a": 63, "b": 64, "c": 65, "d": 66, "e": 67, "f": 68, "g": 69, "h": 70, "i": 71, "j": 72, "k": 73, "l": 74, "m": 75, "n": 76, "o": 77, "p": 78, "q": 79, "r": 80, "s": 81, "t": 82, "u": 83, "v": 84, "w": 85, "x": 86, "y": 87, "z": 88, "{": 89, "|": 90, "}": 91, "~": 92, "¡": 93, "¢": 94, "£": 95, "¤": 96, "¦": 97, "§": 98, "¨": 99, "©": 100, "ª": 101, "«": 102, "®": 103, "¯": 104, "°": 105, "±": 106, "²": 107, "³": 108, "´": 109, "µ": 110, "¶": 111, "·": 112, "¸": 113, "¹": 114, "º": 115, "»": 116, "¼": 117, "½": 118, "¾": 119, "¿": 120, "Â": 121, "Ã": 122, "Ä": 123, "Å": 124, "Î": 125, "Ï": 126, "á": 127, "â": 128, "ĉ": 129, "Ċ": 130, "č": 131, "Ġ": 132, "Ģ": 133, "ģ": 134, "Ĥ": 135, "ĥ": 136, "Ħ": 137, "ħ": 138, "Ĩ": 139, "ĩ": 140, "Ī": 141, "ī": 142, "Ĭ": 143, "ĭ": 144, "į": 145, "İ": 146, "ı": 147, "Ĵ": 148, "ĵ": 149, "Ķ": 150, "ķ": 151, "ĸ": 152, "ĺ": 153, "Ļ": 154, "ľ": 155, "Ŀ": 156, "ŀ": 157, "ł": 158, "Ġt": 159, "he": 160, "Ġa": 161, "čĊ": 162, "in": 163, "Ġthe": 164, "Ġo": 165, "re": 166, "ĠĠ": 167, "Ġs": 168, "er": 169, "Ġw": 170, "nd": 171, "on": 172, "at": 173, "it": 174, "ou": 175, "is": 176, "en": 177, "Ġb": 178, "Ġof": 179, "es": 180, "Ġc": 181, "Ġm": 182, "Ġp": 183, "or": 184, "Ġf": 185, "an": 186, "ed": 187, "Ġand": 188, "Ġh": 189, "Ġto": 190, "Ġin": 191, "Ġd": 192, "ar": 193, "Ġth": 194, "ll": 195, "ĠĠĠĠ": 196, "Ġl": 197, "Ġn": 198, "ing": 199, "ic": 200, "ion": 201, "as": 202, "om": 203, "Ġbe": 204, "le": 205, "Ġe": 206, "ve": 207, "ent": 208, "se": 209, "ot": 210, "st": 211, "al": 212, "ut": 213, "Ġg": 214, "ct": 215, "ĠI": 216, "ce": 217, "Ġis": 218, "Ġy": 219, "Ġwh": 220, "ver": 221, "ow": 222, "im": 223, "ly": 224, "Ġit": 225, "Ġthat": 226, "Ġre": 227, "Ġyou": 228, "Ġu": 229, "ir": 230, "Ġha": 231, "Ġhe": 232, "et": 233, "ld": 234, "Ġfor": 235, "ur": 236, "ay": 237, "Ġas": 238, "id": 239, "ĠĠĠĠĠĠĠĠ": 240, "ro": 241, "ĠT": 242, "Ġ_": 243, "ith": 244, "Ġon": 245, "the": 246, "gh": 247, "ill": 248, "ich": 249, "qu": 250, "âĢ": 251, "Ġnot": 252, "ch": 253, "if": 254, "Ġan": 255, "am": 256, "Ġwe": 257, "Ġwith": 258, "Ġor": 259, "Ġde": 260, "ation": 261, "ad": 262, "Ġwhich": 263, "Ġcon": 264, "ter": 265, "pe": 266, "Ġby": 267, "Ġsu": 268, "Ġare": 269, "all": 270, "ri": 271, "ess": 272, "Ġhave": 273, "Ġst": 274, "Ġse": 275, "od": 276, "ain": 277, "ould": 278, "and": 279, "il": 280, "res": 281, "ĠS": 282, "th": 283, "ul": 284, "Ġex": 285, "ore": 286, "ĠA": 287, "ght": 288, "est": 289, "ĠThe": 290, "Ġsh": 291, "ate": 292, "Ġcom": 293, "ke": 294, "ive": 295, "Ġme": 296, "her": 297, "ect": 298, "Ġat": 299, "Ġso": 300, "ant": 301, "Ġhis": 302, "us": 303, "ab": 304, "Ġwill": 305, "Ġbut": 306, "ge": 307, "ers": 308, "ra": 309, "rom": 310, "Ġv": 311, "Ġwas": 312, "Ġall": 313, "Ġne": 314, "ies": 315, "Ġthis": 316, "ĠĠĠ": 317, "Ġthey": 318, "our": 319, "iv": 320, "ment": 321, "ous": 322, "os": 323, "Ġk": 324, "ity": 325, "to": 326, "ust": 327, "Ã©": 328, "ĠC": 329, "ol": 330, "te": 331, "Ġpro": 332, "very": 333, "Ġgo": 334, "Ġman": 335, "pp": 336, "art": 337, "Ġtheir": 338, "nt": 339, "Ġfrom": 340, "ig": 341, "ist": 342, "ome": 343, "ure": 344, "Ġqu": 345, "ord": 346, "la": 347, "ther": 348, "Ġle": 349, "Ġwhe": 350, "Ġyour": 351, "ru": 352, "ame": 353, "Ġmy": 354, "Ġthem": 355, "ĠM": 356, "ple": 357, "Ġdo": 358, "ose": 359, "um": 360, "ie": 361, "red": 362, "ĠW": 363, "Ġch": 364, "Ġhim": 365, "ĠH": 366, "âĢĻ": 367, "ard": 368, "ĠB": 369, "ence": 370, "Ġla": 371, "ions": 372, "Ġup": 373, "un": 374, "Ġone": 375, "Ġad": 376, "ind": 377, "reat": 378, "Ġno": 379, "Ġun": 380, "ci": 381, "ost": 382, "em": 383, "Ġ1": 384, "per": 385, "Ġsa": 386, "Ġmay": 387, "ĠP": 388, "sel": 389, "Ġj": 390, "Ġal": 391, "ĠE": 392, "Ġcan": 393, "ject": 394, "_,": 395, "ast": 396, "ĠĠĠĠĠĠĠĠĠĠĠĠĠĠĠĠ": 397, "ong": 398, "ort": 399, "The": 400, "ak": 401, "Ġother": 402, "ight": 403, "Ġwho": 404, "--": 405, "ans": 406, "Ġwould": 407, "Ġthere": 408, "Ġus": 409, "able": 410, "ance": 411, "Ġr": 412, "ff": 413, "ĠF": 414, "Ġmore": 415, "cc": 416, "out": 417, "ĠâĢ": 418, "pt": 419, "Ġpr": 420, "ake": 421, "ire": 422, "Ġhad": 423, "ck": 424, "ary": 425, "Ġen": 426, "'s": 427, "Ġpart": 428, "ound": 429, "Ġif": 430, "are": 431, "Ġhas": 432, "Ġim": 433, "ond": 434, "Ġab": 435, "now": 436, "we": 437, "of": 438, "Ġfa": 439, "Ġthan": 440, "Ġbeen": 441, "not": 442, "itt": 443, "ces": 444, "Ġany": 445, "ag": 446, "ud": 447, "ert": 448, "ish": 449, "Ġthou": 450, "one": 451, "ĠL": 452, "ĠG": 453, "Ġam": 454, "ime": 455, "bject": 456, "pl": 457, "Ġform": 458, "Ġpe": 459, "Ġwere": 460, "ine": 461, "ally": 462, "Ġour": 463, "Ġwhen": 464, "au": 465, "ry": 466, "ĠN": 467, "Ġspe": 468, "Ġgreat": 469, "be": 470, "ok": 471, "Ġ(": 472, "ass": 473, "ress": 474, "Ġsome": 475, "Ġupon": 476, "ree": 477, "self": 478, "ib": 479, "ice": 480, "Ġfe": 481, "fore": 482, "Ġvery": 483, "bl": 484, "Ġdis": 485, "Ġher": 486, "ĠR": 487, "ven": 488, "ĠO": 489, "Ġar": 490, "fe": 491, "Ġcomm": 492, "Ġwhat": 493, "Ġits": 494, "ction": 495, "ĠSt": 496, "Ġshould": 497, "Ġet": 498, "Ġwor": 499, "ĠD": 500, "ount": 501, "Ġpre": 502, "ĠâĢĺ": 503, "Ġdes": 504, "ne": 505, "con": 506, "hat": 507, "Ġlo": 508, "Ġper": 509, "ide": 510, "Ġpl": 511}, "merges": ["Ġ t", "h e", "Ġ a", "č Ċ", "i n", "Ġt he", "Ġ o", "r e", "Ġ Ġ", "Ġ s", "e r", "Ġ w", "n d", "o n", "a t", "i t", "o u", "i s", "e n", "Ġ b", "Ġo f", "e s", "Ġ c", "Ġ m", "Ġ p", "o r", "Ġ f", "a n", "e d", "Ġa nd", "Ġ h", "Ġt o", "Ġ in", "Ġ d", "a r", "Ġt h", "l l", "ĠĠ ĠĠ", "Ġ l", "Ġ n", "in g", "i c", "i on", "a s", "o m", "Ġb e", "l e", "Ġ e", "v e", "en t", "s e", "o t", "s t", "a l", "u t", "Ġ g", "c t", "Ġ I", "c e", "Ġ is", "Ġ y", "Ġw h", "v er", "o w", "i m", "l y", "Ġ it", "Ġth at", "Ġ re", "Ġy ou", "Ġ u", "i r", "Ġh a", "Ġ he", "e t", "l d", "Ġf or", "u r", "a y", "Ġa s", "i d", "ĠĠĠĠ ĠĠĠĠ", "r o", "Ġ T", "Ġ _", "it h", "Ġo n", "t he", "g h", "i ll", "ic h", "q u", "â Ģ", "Ġn ot", "c h", "i f", "Ġa n", "a m", "Ġw e", "Ġw ith", "Ġo r", "Ġd e", "at ion", "a d", "Ġwh ich", "Ġc on", "t er", "p e", "Ġb y", "Ġs u", "Ġa re", "a ll", "r i", "es s", "Ġha ve", "Ġs t", "Ġs e", "o d", "a in", "ou ld", "a nd", "i l", "re s", "Ġ S", "t h", "u l", "Ġe x", "o re", "Ġ A", "gh t", "es t", "ĠT he", "Ġs h", "at e", "Ġc om", "k e", "i ve", "Ġm e", "he r", "e ct", "Ġa t", "Ġs o", "an t", "Ġh is", "u s", "a b", "Ġw ill", "Ġb ut", "g e", "er s", "r a", "r om", "Ġ v", "Ġw as", "Ġa ll", "Ġn e", "i es", "Ġth is", "ĠĠ Ġ", "Ġthe y", "ou r", "i v", "m ent", "ou s", "o s", "Ġ k", "it y", "t o", "u st", "Ã ©", "Ġ C", "o l", "t e", "Ġp ro", "ver y", "Ġg o", "Ġm an", "p p", "ar t", "Ġthe ir", "n t", "Ġf rom", "i g", "is t", "om e", "u re", "Ġ qu", "or d", "l a", "the r", "Ġl e", "Ġw he", "Ġyou r", "r u", "am e", "Ġm y", "Ġthe m", "Ġ M", "p le", "Ġd o", "o se", "u m", "i e", "re d", "Ġ W", "Ġc h", "Ġh im", "Ġ H", "âĢ Ļ", "ar d", "Ġ B", "en ce", "Ġl a", "ion s", "Ġu p", "u n", "Ġon e", "Ġa d", "in d", "re at", "Ġn o", "Ġu n", "c i", "o st", "e m", "Ġ 1", "p er", "Ġs a", "Ġm ay", "Ġ P", "se l", "Ġ j", "Ġa l", "Ġ E", "Ġc an", "j ect", "_ ,", "as t", "ĠĠĠĠĠĠĠĠ ĠĠĠĠĠĠĠĠ", "on g", "or t", "T he", "a k", "Ġo ther", "i ght", "Ġwh o", "- -", "an s", "Ġw ould", "Ġthe re", "Ġu s", "ab le", "an ce", "Ġ r", "f f", "Ġ F", "Ġm ore", "c c", "ou t", "Ġ âĢ", "p t", "Ġp r", "a ke", "i re", "Ġha d", "c k", "ar y", "Ġ en", "' s", "Ġp art", "ou nd", "Ġ if", "a re", "Ġh as", "Ġ im", "o nd", "Ġa b", "n ow", "w e", "o f", "Ġf a", "Ġth an", "Ġbe en", "n ot", "it t", "c es", "Ġan y", "a g", "u d", "er t", "is h", "Ġth ou", "on e", "Ġ L", "Ġ G", "Ġa m", "im e", "b ject", "p l", "Ġfor m", "Ġp e", "Ġwe re", "in e", "all y", "Ġo ur", "Ġwhe n", "a u", "r y", "Ġ N", "Ġs pe", "Ġg reat", "b e", "o k", "Ġ (", "as s", "res s", "Ġs ome", "Ġup on", "re e", "sel f", "i b", "ic e", "Ġf e", "f ore", "Ġ very", "b l", "Ġd is", "Ġhe r", "Ġ R", "v en", "Ġ O", "Ġa r", "f e", "Ġcom m", "Ġwh at", "Ġit s", "ct ion", "ĠS t", "Ġsh ould", "Ġe t", "Ġw or", "Ġ D", "ou nt", "Ġp re", "ĠâĢ ĺ", "Ġd es", "n e", "c on", "h at", "Ġl o", "Ġp er", "id e", "Ġp l"]}}